{"version":"1.0","truncation":null,"padding":null,"added_tokens":[{"id":0,"special":true,"content":"[UNK]","single_word":false,"lstrip":false,"rstrip":false,"normalized":false},{"id":1,"special":true,"content":"[CLS]","single_word":false,"lstrip":false,"rstrip":false,"normalized":false},{"id":2,"special":true,"content":"[SEP]","single_word":false,"lstrip":false,"rstrip":false,"normalized":false},{"id":3,"special":true,"content":"[PAD]","single_word":false,"lstrip":false,"rstrip":false,"normalized":false},{"id":4,"special":true,"content":"[MASK]","single_word":false,"lstrip":false,"rstrip":false,"normalized":false}],"normalizer":null,"pre_tokenizer":null,"post_processor":null,"decoder":null,"model":{"type":"BPE","dropout":null,"unk_token":null,"continuing_subword_prefix":null,"end_of_word_suffix":null,"fuse_unk":false,"vocab":{"[UNK]":0,"[CLS]":1,"[SEP]":2,"[PAD]":3,"[MASK]":4,"\n":5," ":6,"!":7,"\"":8,"#":9,"$":10,"%":11,"&":12,"'":13,"(":14,")":15,"*":16,"+":17,",":18,"-":19,".":20,"/":21,"0":22,"1":23,"2":24,"3":25,"4":26,"5":27,"6":28,"7":29,"8":30,"9":31,":":32,";":33,"<":34,"=":35,">":36,"?":37,"@":38,"A":39,"B":40,"C":41,"D":42,"E":43,"F":44,"G":45,"H":46,"I":47,"J":48,"K":49,"L":50,"M":51,"N":52,"O":53,"P":54,"Q":55,"R":56,"S":57,"T":58,"U":59,"V":60,"W":61,"X":62,"Y":63,"Z":64,"[":65,"\\":66,"]":67,"^":68,"`":69,"a":70,"b":71,"c":72,"d":73,"e":74,"f":75,"g":76,"h":77,"i":78,"j":79,"k":80,"l":81,"m":82,"n":83,"o":84,"p":85,"q":86,"r":87,"s":88,"t":89,"u":90,"v":91,"w":92,"x":93,"y":94,"z":95,"|":96,"~":97,"¡":98,"£":99,"¥":100,"§":101,"°":102,"±":103,"²":104,"³":105,"µ":106,"·":107,"½":108,"Á":109,"Å":110,"Æ":111,"É":112,"Í":113,"Î":114,"Ö":115,"×":116,"Ø":117,"Ú":118,"Ü":119,"Þ":120,"à":121,"á":122,"â":123,"ã":124,"ä":125,"å":126,"ç":127,"è":128,"é":129,"ê":130,"ë":131,"ì":132,"í":133,"î":134,"ñ":135,"ò":136,"ó":137,"ô":138,"ö":139,"ø":140,"ú":141,"û":142,"ü":143,"Ā":144,"ā":145,"ă":146,"ć":147,"č":148,"Đ":149,"đ":150,"ė":151,"ī":152,"Ł":153,"ł":154,"ń":155,"Ō":156,"ō":157,"ś":158,"ş":159,"š":160,"ū":161,"ų":162,"Ż":163,"ž":164,"ơ":165,"ư":166,"ʻ":167,"ʿ":168,"̃":169,"α":170,"β":171,"γ":172,"κ":173,"μ":174,"С":175,"а":176,"в":177,"е":178,"к":179,"о":180,"с":181,"т":182,"я":183,"ا":184,"ح":185,"ص":186,"ل":187,"ن":188,"ه":189,"्":190,"ก":191,"ง":192,"ณ":193,"ต":194,"ม":195,"ย":196,"ร":197,"ล":198,"ั":199,"า":200,"ิ":201,"่":202,"์":203,"გ":204,"დ":205,"ვ":206,"ზ":207,"ი":208,"კ":209,"ო":210,"რ":211,"ს":212,"უ":213,"ც":214,"ძ":215,"წ":216,"ხ":217,"ჯ":218,"჻":219,"ḥ":220,"ṃ":221,"ṅ":222,"ṣ":223,"ṭ":224,"ṯ":225,"ả":226,"ấ":227,"ầ":228,"ắ":229,"ễ":230,"ệ":231,"ị":232,"ớ":233,"ử":234,"ỳ":235,"‑":236,"–":237,"—":238,"‘":239,"’":240,"“":241,"”":242,"„":243,"†":244,"…":245,"′":246,"″":247,"⁄":248,"₤":249,"€":250,"₹":251,"⅓":252,"⅔":253,"→":254,"−":255,"≤":256,"☉":257,"♭":258,"♯":259,"〈":260,"〉":261,"の":262,"ァ":263,"ア":264,"キ":265,"ス":266,"ッ":267,"ト":268,"プ":269,"ュ":270,"リ":271,"ル":272,"ヴ":273,"・":274,"動":275,"場":276,"大":277,"戦":278,"攻":279,"機":280,"殻":281,"火":282,"礮":283,"空":284,"隊":285,"﻿":286,"～":287,"e ":288,"s ":289,"th":290,"d ":291,"n ":292,"er":293,"t ":294,"the ":295,"in":296,"an":297,", ":298,"un":299,"y ":300,"ed ":301,". ":302,"or":303,"ar":304,"unk":305,"> ":306,"<unk":307,"<unk> ":308,"al":309,"o ":310,"f ":311,"re":312,"of ":313,"ti":314,"and ":315,"on":316,"er ":317,"en":318,"g ":319,"a ":320,"on ":321,"in ":322,"ing ":323,"to ":324,"as ":325,"ro":326,"st":327,"es ":328,"at":329,"ic":330,"m ":331,"ou":332,"= ":333,"el":334,"\" ":335,"it":336,"is ":337,"he ":338,"il":339,"at ":340,"ac":341,"h ":342,"al ":343,"th ":344,"an ":345,"is":346,"or ":347,"@ ":348,"ur":349,"ec":350,"om":351,"as":352,"was ":353,"es":354," , ":355,"am":356,"ol":357,"en ":358,"ir":359,"The ":360,"tion ":361,"ly ":362,"ow":363,"of the ":364,"si":365,"-@ ":366,"@-@ ":367,"= = ":368,"ri":369,"wh":370,"wi":371,"l ":372,"ad":373,"em":374,". \n":375," \n":376,"pl":377,"that ":378,"'s ":379,"ha":380,"k ":381,"us":382,"for ":383,"by ":384,"ve ":385,"ag":386,"di":387,"ev":388,"with ":389,"ent ":390,"be":391,"ch":392,"( ":393,"con":394,"ig":395,"ent":396,"ere ":397,". The ":398,"os":399,"in the ":400,"0 ":401,"19":402,"s , ":403,"su":404,"le":405,"ra":406,"e , ":407,"li":408,"for":409,"op":410,"the":411,"his ":412,"pro":413,"ear":414,"com":415,"ov":416,"rom ":417,") ":418,"ce ":419,"ted ":420,"le ":421,"<unk> , ":422,"de":423,"bu":424,"from ":425,"it ":426,"ex":427,"ers ":428,"tion":429,"ab":430,"oun":431,"ul":432,"ay ":433,"ap":434,"ation ":435,"hi":436,"20":437,"were ":438,"et":439,"cl":440,"sp":441,"oc":442,"ter ":443,"to the ":444,"ew":445,". I":446,"st ":447,"ch ":448,"ther ":449,"se":450,"p ":451,"vi":452,"im":453,"tr":454,"pre":455,"ated ":456,"ts ":457,"ter":458,". A":459,"our":460,"ity ":461,"oo":462,"ar ":463,"no":464," = = ":465,"per":466,"had ":467,"ded ":468,"ate ":469,"ain":470,"tic":471,"ich ":472,"qu":473,"uc":474,", and ":475,"ir ":476,"rec":477,"tw":478,"ds ":479,"ding ":480,"par":481,"ff":482,"ay":483,"ic ":484,"igh":485,"ame ":486,"str":487,"which ":488,"are ":489,"ld ":490,"ea":491,"1 ":492,"sh":493,"2 ":494,"ing":495,"um":496,"iv":497,"est ":498,"e of ":499,"all ":500,"5 ":501,"ong ":502,"ug":503,"ber ":504,"ed the ":505,"ing the ":506,"be ":507,"out ":508,"fir":509,"so ":510,". T":511,"de ":512,"ep":513,"St":514,"ed to ":515,"ally ":516,"ak":517,"tim":518,". H":519,"its ":520,"ation":521,"ies ":522,"on the ":523,"one ":524,"po":525,"por":526,"man":527,"ed by ":528,"low":529,"att":530,"3 ":531,"Ch":532,"ary ":533,"but ":534,"tur":535,"der":536,"; ":537,"200":538,"est":539,"et ":540,"their ":541,"4 ":542,"wor":543,"not ":544,"ew ":545,"own ":546,"<unk> <unk> ":547,"bl":548,"ser":549,"6 ":550,"first ":551,"fter ":552,"og":553,"– ":554,", the ":555,"clu":556,"ould ":557,"also ":558,"8 ":559,"ion ":560,"s and ":561,"bo":562,"el ":563,". In ":564," The ":565,"der ":566,"ost ":567,"ine ":568,"all":569,"cont":570,"ast ":571,"her ":572,"sc":573,"av":574,"for the ":575,"<unk> and ":576,"ge ":577,"s of ":578,"ard ":579,"have ":580,"ain ":581,"stor":582,"ran":583,"00 ":584,"ed in ":585,"oug":586,"other ":587,"7 ":588,"been ":589,"has ":590,"two ":591,".@ ":592,"@.@ ":593,"ore ":594,"ack ":595,"des":596,"and the ":597,"fi":598,"ment ":599,"= = \n":600,": ":601,"bec":602,"this ":603,"duc":604,"ut":605,"i ":606,"ome ":607,"ater ":608,"sec":609,"= \n":610,"mil":611,"dis":612,"ot":613,"ver":614,"ely ":615,"id":616,"ey ":617,"they ":618,"over":619,"land ":620,"age ":621,"from the ":622,"201":623,"shi":624,"es , ":625,"who ":626,"up ":627,"ence ":628,"year":629,"at the ":630,"ill":631,"comm":632,",@ ":633,"@,@ ":634,"9 ":635,"ical ":636,"' ":637,"ue ":638,"ass":639,"ali":640,"aw":641,"fl":642,"pres":643,". <unk> ":644,"18":645,"fe":646,"fin":647,". \" ":648,"ru":649,"form":650,"inclu":651,"id ":652,"ish":653,"ed":654,"ight ":655,"ad ":656,"tive ":657,"ting ":658,"after ":659,"ember ":660,"cre":661,"with the ":662,"rit":663,". He ":664,"I ":665,"our ":666,"ow ":667,"ack":668,"ob":669,"ade ":670,"In":671,"ous ":672,"ant ":673,"ound ":674,"sion ":675,". Th":676,"cri":677,"as a ":678,"over ":679,". S":680,"roug":681,") , ":682,"ents ":683,"ree ":684,"Un":685,"pe":686,"ese ":687,"ile ":688,"er , ":689,"pr":690,"ial ":691,"pu":692,"min":693,"me":694,"een ":695," <unk> ":696,"play":697,"ell ":698,"y , ":699,"ph":700," = = = ":701,"Mar":702,"rem":703,"gro":704,"would ":705,"gu":706,"cent":707,"more ":708,"eral ":709,"pos":710,"ite ":711," A":712,"ren":713," @-@ ":714,"ough ":715,"mo":716,"il ":717,"able ":718,"ft ":719,"us ":720,"spec":721,". It ":722,"dur":723,"that the ":724,"se ":725,"ern ":726,". O":727,"= = = \n":728,"most ":729,"mer":730,"eg":731,"ess":732,"off":733,"are":734,"ish ":735,"kn":736,"lar":737,"char":738,"ten":739,"ed a ":740,"ke ":741,"inter":742,"ast":743,"as the ":744,"only ":745,"a , ":746,"pan":747,"time ":748,"ell":749,"ust ":750,"ond ":751,"in 19":752,"ann":753,"son ":754,"t of ":755,"ess ":756,"when ":757,"ace ":758,"man ":759,"ons ":760,"ach":761,"dec":762,"lan":763,"up":764,"ric":765,"enc":766,"fil":767,"ance ":768,". B":769,"res":770,"ice ":771,"col":772,"ht ":773,"ty ":774,"ited ":775,"serv":776,"ollow":777,"sev":778,"aus":779,"tic ":780,"reg":781,"ations ":782,"ason ":783,"ee":784,"Wh":785,"him ":786,"mar":787,"than ":788,"ks ":789,"au":790,"ong":791," , the ":792,"end ":793,"Bri":794,"ates ":795,"res ":796,"sur":797,"anc":798,"about ":799,"od":800,"ach ":801,"she ":802,"iti":803,"sa":804,"three ":805,"Com":806,"in a ":807,"throug":808,"ng":809,"betw":810,"between ":811,"nor":812,"x ":813,"In ":814,"ia ":815,"num":816,"outh ":817,"meric":818,"and <unk> ":819,"cc":820,"A ":821,"um ":822,"ple ":823,"struc":824,"rop":825,"atur":826,"bas":827,"ake ":828,"though ":829,"star":830,"tra":831,"ision ":832,"old ":833,"\" , ":834,"Americ":835,"while ":836,"tis":837,"ning ":838,"into ":839,"writ":840,"am ":841,"later ":842,"tions ":843,"mon":844,"beg":845,"amp":846,"ational ":847,"by the ":848,"ook ":849,"of":850,"to be ":851,"if":852,"way ":853,"fore ":854,"recor":855,"ian ":856,"Al":857,"where ":858,"sel":859,"ill ":860,"co":861,"rel":862,"season ":863,"ship ":864,"als ":865,"ist":866,"eb":867,"t , ":868,"king ":869,"leas":870,"iz":871,"ang":872,"evel":873,"sy":874,"to":875,"follow":876,"app":877,". F":878,"sig":879,"ose ":880,"ood ":881,"tit":882,"produc":883,"gen":884,"made ":885,"ement ":886,"game ":887,"buil":888,"000 ":889," , and ":890,"tor":891,"hel":892,"loc":893,"sub":894,"ustr":895,"a <unk> ":896,"them ":897,"olog":898,"ings ":899,"re ":900,"riv":901,"releas":902,"coun":903,"with":904,"Th":905,"ans ":906,"of <unk> ":907,"ten ":908,"Car":909,"row":910," In ":911,". M":912,"te ":913,"sup":914,"199":915,"do":916,"nam":917,"ned ":918,"ist ":919,"cap":920,"ked ":921,"such ":922,"oy":923,"Ar":924,"mus":925,"new ":926,"publ":927,"tiv":928,"@,@ 000 ":929,"before ":930,"ily ":931,"Nor":932,"compl":933,"ud":934,". D":935,"ble ":936,"the <unk> ":937,"with a ":938,"es and ":939,"song ":940,"ma":941,"lin":942,"and":943,"es of ":944,"ating ":945,"ected ":946,"owev":947,"op ":948,"air":949,"Par":950,"go":951,"te":952,"ste":953,"ainst ":954,"Jo":955,"pol":956,"ear ":957,"ed on ":958,"many ":959,"through ":960,"ry ":961,"some ":962,"ous":963,"albu":964,"fu":965,"against ":966,"enti":967,"film ":968,"New ":969,"being ":970,"it was ":971,"well ":972,"posi":973,"then ":974,"early ":975,"fac":976,"s , and ":977,". This ":978,"hea":979,"is a ":980,"ed , ":981,"An":982,"mov":983,"day ":984,"number ":985,"inc":986,"inv":987,"both ":988,"series ":989,"— ":990,"second ":991,"including ":992,"call":993,"ince ":994,"poin":995,"became ":996,"Eng":997,"consi":998,"\" <unk> ":999,"ury ":1000,"ards ":1001,"can ":1002,"he":1003,"no ":1004,"acc":1005,"known ":1006,"rig":1007,"S ":1008,"direc":1009,"tly ":1010,"mat":1011,"du":1012,"album ":1013,"tish ":1014,"yp":1015,"und ":1016,"ery ":1017,"there ":1018,"les ":1019,"bel":1020,"arm":1021,"United ":1022,"ect ":1023,"epis":1024,"car":1025,"side ":1026,"tran":1027,"mis":1028,"ton ":1029,"contin":1030,"evelop":1031,"pp":1032,"eng":1033,"tion of ":1034,"ail":1035,"gre":1036,"win":1037,"sid":1038,"during the ":1039,"ot ":1040,"eam ":1041,"ros":1042,"tri":1043,"fer":1044,"several ":1045,"/ ":1046,"work ":1047,"charac":1048,"ture ":1049,"vis":1050,"peri":1051,"ol ":1052,"overn":1053,"under ":1054,"orig":1055,"story ":1056,"( <unk> ":1057,"b ":1058,"cho":1059,"succ":1060,"iver":1061,"ed that ":1062,"sing":1063,"mp":1064,"ustrali":1065,"emb":1066,"four ":1067,"sm":1068,"descri":1069,"forc":1070,"city ":1071,"sul":1072,"appear":1073,"Joh":1074,"ps ":1075,"began ":1076,"oper":1077,"w ":1078,"ed in the ":1079,"end":1080,"he was ":1081,"lion ":1082,"American ":1083,"opul":1084,"plac":1085,"ort ":1086,"Wor":1087,". A ":1088,"cer":1089,"Australi":1090,"develop":1091,"British ":1092,"tro":1093,"ign ":1094,"origin":1095,"Ger":1096,"ays ":1097,"ath":1098,"til":1099,"10 ":1100,"Sc":1101,"diff":1102,"Ju":1103,"popul":1104,"Con":1105,"od ":1106,"high":1107,"til ":1108,"ames ":1109,"ion":1110,"ept":1111,"m ) ":1112,"found ":1113,"owever , ":1114,"ari":1115,"ave ":1116,"could ":1117,"port ":1118,"cur":1119,", but ":1120,"sol":1121,"tor ":1122,"line ":1123,"ris":1124,"like ":1125,"ed by the ":1126,"said ":1127,"ually ":1128,"ing a ":1129,"adi":1130,"was the ":1131,"rece":1132,"C ":1133,"any ":1134,"years ":1135,"these ":1136,"lif":1137,"dre":1138,"self ":1139,"ou ":1140,"ters ":1141,"did ":1142,"ause ":1143,"igh ":1144,"until ":1145,"Col":1146,"retur":1147,"year ":1148,"e , and ":1149,"ward ":1150,"org":1151,"Le":1152,"ative ":1153,"ation of ":1154,". On ":1155,"sou":1156,"194":1157,"offic":1158,"had been ":1159,"each ":1160,"cas":1161,"back ":1162,"thern ":1163,"off ":1164,"s the ":1165,"lo":1166,"team ":1167,"<unk> ( ":1168,"used ":1169,"ron":1170,"view":1171,"may ":1172,"sive ":1173,"ale ":1174,"along ":1175,"Oc":1176,"sign":1177,"Jan":1178,"remain":1179,"a f":1180,"198":1181,"tical ":1182,"gr":1183,"try ":1184,"describ":1185,"ef":1186,"Sept":1187,"une ":1188,"play ":1189,"continu":1190,"September ":1191,"Aug":1192,"emp":1193,"oci":1194,"peo":1195,"ual ":1196,"receiv":1197," \" ":1198,"around ":1199,"down ":1200,"ever ":1201,"same ":1202,"t of the ":1203,"stri":1204,"bor":1205,"bro":1206,"million ":1207,". W":1208,"have been ":1209,"May ":1210,"ode ":1211,"abl":1212,"to a ":1213,"low ":1214,"u ":1215,"ird ":1216,"compan":1217,"dep":1218,"batt":1219,"ey":1220,"eld ":1221,"tain ":1222,"govern":1223,"red ":1224,"ly":1225,"own":1226,"t the ":1227,"century ":1228,"long ":1229,"pri":1230,"tak":1231,". Wh":1232,"0 , ":1233,"area ":1234,"50 ":1235,"20 ":1236,"fam":1237,"def":1238,"1 , ":1239,"k , ":1240,"August ":1241,"World ":1242,"bi":1243,"ures ":1244,"leg":1245,"pow":1246,"ant":1247,". R":1248,"s to ":1249,"of a ":1250,"met":1251,"ip":1252,"is the ":1253,"do ":1254,"196":1255,"gra":1256,"dra":1257,"mu":1258,"az":1259,"197":1260,"urch ":1261,"for a ":1262,"Is":1263,"was a ":1264,"tain":1265,"ving ":1266," B":1267,"resul":1268,"requ":1269,". They ":1270,"John ":1271,"e and ":1272,"form ":1273,"ful ":1274,"ties ":1275,"tional ":1276,"we":1277,"ropical ":1278,". L":1279," O":1280,"om ":1281,"ory ":1282,"ass ":1283,"30 ":1284,"sity ":1285,", which ":1286,"to <unk> ":1287,"mi":1288,"contro":1289,"North ":1290,"one of the ":1291,"five ":1292,"disc":1293,"my ":1294,"national ":1295,"s were ":1296,"<unk> of ":1297,"5 , ":1298,"into the ":1299,"war":1300,"17":1301,"took ":1302,"wee":1303,"ord":1304,"large ":1305,"dam":1306,". After ":1307,"ber":1308,"ute ":1309,"under":1310," S":1311,"e , the ":1312,"spon":1313,"episode ":1314,"now ":1315,"since ":1316,"s in ":1317,"out":1318,"ished ":1319,"port":1320,"inten":1321,"during ":1322,"enn":1323,"Gu":1324,"stem ":1325,"has been ":1326,"maj":1327,"state ":1328,"ath ":1329,"ection ":1330,"ign":1331,"United St":1332,"uary ":1333,"bur":1334,"ently ":1335,"set ":1336,"people ":1337,"arly ":1338,"ing to ":1339,"ately ":1340,"2 , ":1341,"tober ":1342,"October ":1343,"3 , ":1344,"what ":1345," F":1346,"larg":1347,"ording ":1348,"ful":1349,"% ":1350,"Nov":1351,"appro":1352,"la":1353,"som":1354,"west ":1355,"16":1356,". P":1357,"vari":1358,"adv":1359,"such as ":1360,"high ":1361,"ure ":1362,"<unk> , and ":1363,"July ":1364,"South ":1365,"ich":1366,"Wil":1367,"$ ":1368,"June ":1369,"incre":1370,"War ":1371,"ext ":1372,"ort":1373,"in <unk> ":1374,"act ":1375,"called ":1376,"dic":1377,"men ":1378,"ne ":1379,"cul":1380,"ral ":1381,"sequ":1382,"jo":1383,". Al":1384,"final ":1385,"cha":1386,"ors ":1387," M":1388,"pass":1389,"ted to ":1390,"ley ":1391,"partic":1392,"consider":1393,"January ":1394,"even ":1395,"Coun":1396,"because ":1397,"12 ":1398,"as \" ":1399,"@-@ <unk> ":1400,"led ":1401,"ought ":1402,"ne":1403,"es to ":1404,"due ":1405,"hal":1406,"music ":1407,"giv":1408,"bre":1409,"er and ":1410,"ground ":1411,"increas":1412,"del":1413,"included ":1414,"er 's ":1415,"ing , ":1416,"Bl":1417,"Dec":1418,"Li":1419,"construc":1420,"ball ":1421,"Eu":1422,"4 , ":1423,"Yor":1424,"sl":1425,"vic":1426,"ers , ":1427,"species ":1428,"Can":1429,"br":1430,"dy ":1431,"open":1432,"ed with ":1433,"deo ":1434,"respon":1435,"much ":1436,"es in ":1437,". \" \n":1438,"Pl":1439,"per ":1440,"chil":1441,"ise ":1442,"sion":1443," D":1444,"15 ":1445,". N":1446,"mak":1447,"eff":1448,"very ":1449,"ed and ":1450,"ology ":1451,"Jap":1452,"\" and ":1453,"place ":1454,"..":1455,"name ":1456,"ane ":1457,"United States ":1458,"US ":1459,"ech":1460,"omin":1461,"attemp":1462,"tre":1463,"medi":1464,"ai":1465,"prot":1466,"did not ":1467,"November ":1468,"me ":1469,"Apr":1470,"another ":1471,"Fran":1472,"<unk> 's ":1473,"provi":1474,"udi":1475,"position ":1476,"wro":1477,". E":1478,"government ":1479,"ague ":1480,"II ":1481,"although ":1482,"oth":1483,"to re":1484,"will ":1485,"a and ":1486,"coll":1487,"built ":1488,"inst":1489,"es were ":1490,"tow":1491,"left ":1492,"north ":1493,"<unk> in ":1494,"sist":1495,"critic":1496,"record ":1497,"ported ":1498,"head ":1499,"late ":1500,"previ":1501,". In the ":1502,", and the ":1503,"ature ":1504,"yl":1505,"as well ":1506,"don ":1507,"ms ":1508,"differ":1509,"use ":1510,"establ":1511,"aw ":1512,"ific":1513,"fur":1514,"kill":1515,"March ":1516,"December ":1517,"lead":1518,"storm ":1519,"on a ":1520,") and ":1521,"if ":1522,"For":1523,"set":1524,"German ":1525,", a ":1526,"<unk> . \n":1527,"itary ":1528,"gener":1529,"ility ":1530,"pit":1531,"ended ":1532,"cour":1533,"a 's ":1534,"single ":1535,"organ":1536,"y of ":1537,"Batt":1538,"ered ":1539,"ins ":1540,"life ":1541,"south ":1542,"main ":1543,"scho":1544,"bar":1545,"beli":1546,"number of ":1547,"just ":1548,"Gre":1549,"Ro":1550,"Sh":1551,"field ":1552,"sen":1553,"ven":1554,"ects ":1555,"Riv":1556,"third ":1557,"lit":1558,"z ":1559,"following ":1560,"[ ":1561,"dition ":1562,"s , the ":1563,". C":1564,"expl":1565,"forman":1566,"after the ":1567,"National ":1568,"oman ":1569,"group ":1570,"small ":1571,"Man":1572,"dem":1573,"ove ":1574,"es the ":1575,"oon ":1576,"ick ":1577,"ved ":1578,"Indi":1579,"ular ":1580,". However , ":1581,"Pro":1582,"ships ":1583,"wrote ":1584,"pi":1585,"inn":1586,"\" . \n":1587,"system ":1588," = ":1589,"elev":1590,"ead ":1591,"present":1592,"rench ":1593,"April ":1594,"air ":1595,". It was ":1596,"ati":1597,"] ":1598,"pur":1599,"ick":1600,"till ":1601,"cor":1602,"care":1603,"eas":1604,"England ":1605,"ean ":1606,"dist":1607,"es ( ":1608,"ock ":1609,"8 , ":1610,"aim":1611,"exc":1612,"Char":1613,"9 , ":1614,"water ":1615,"in 18":1616,"City ":1617,"af":1618,"run":1619,"stud":1620,"Mon":1621,"caus":1622,"th century ":1623,"ire ":1624,"sum":1625,"Ph":1626,"Wal":1627,"ed as ":1628,"ed for ":1629,"Div":1630,"original ":1631,"fun":1632,"success":1633,"6 , ":1634,"them":1635,"195":1636,"hum":1637,"iversity ":1638,"Gen":1639,"video ":1640,"show":1641,". She ":1642,"head":1643,"character ":1644,"gg":1645,"last ":1646,"allow":1647,"best ":1648,"cra":1649,"scor":1650,"16 ":1651,"it is ":1652,"Her":1653,"next ":1654,"flu":1655,"los":1656,"son":1657,"reach":1658,"French ":1659,"death ":1660,"auth":1661,"held ":1662,"fic":1663,"ie ":1664,"town ":1665,"issu":1666,"performan":1667,"; the ":1668,"make ":1669,"lim":1670,"typ":1671,"York ":1672,"14 ":1673,"home ":1674,"tropical ":1675,"some":1676,"den ":1677,"still ":1678,"major ":1679,"chang":1680,"manag":1681,"ogra":1682,"possi":1683,"again ":1684,"7 , ":1685,"of his ":1686,"action ":1687,"world ":1688,"Mus":1689,", \" ":1690,"esp":1691,"Ge":1692,"ind ":1693,"design":1694,"her":1695,"war ":1696,"six ":1697,"Per":1698,"11 ":1699,"read":1700,"urric":1701,"sit":1702,"memb":1703,"tle ":1704,"193":1705,"sk":1706,"comp":1707,"would be ":1708,", <unk> ":1709,"over the ":1710,"25 ":1711,"that he ":1712,"bri":1713,"roy":1714,"inf":1715,"quar":1716,"nd ":1717,"<unk> to ":1718,"Ma":1719,"in 200":1720,"Division ":1721,"band ":1722,"ious ":1723,"ve":1724,"dom ":1725,"'t ":1726,"0s ":1727,"show ":1728,"main":1729,"near ":1730,"half ":1731,"often ":1732,"of the <unk> ":1733,"came ":1734,"rais":1735,"ets ":1736,"resid":1737,"Vi":1738,"able to ":1739,"ously ":1740," H":1741,"initi":1742,"song":1743,"defe":1744,"heav":1745,"ether ":1746,"stit":1747,"right ":1748,". As ":1749,"ubl":1750,"role ":1751,"period ":1752,"18 ":1753,"those ":1754,"dr":1755,"ism ":1756,"<unk> and <unk> ":1757,"sed ":1758,"in his ":1759,"ements ":1760,"ses ":1761,"simil":1762,"times ":1763,"ying ":1764,"attack":1765,"tot":1766,"stre":1767,"histor":1768,"ities ":1769,"ef ":1770,"military ":1771,"version ":1772,"and a ":1773,"gam":1774,"D ":1775,"former ":1776,"local ":1777,"clos":1778,"mag":1779,"ut ":1780,"family ":1781,"art ":1782,"dest":1783,"1 @.@ ":1784,"of S":1785,"sugg":1786,"history ":1787,"east ":1788,"commun":1789,"100 ":1790,"ens ":1791,": \" ":1792,"ith ":1793,"poli":1794,"aff":1795,"less ":1796,"oot":1797,"without ":1798,"ony ":1799,"o @-@ ":1800,"Af":1801,"pat":1802,"take ":1803,"Cl":1804,"alion ":1805,"perform":1806,"part of the ":1807,"ive ":1808,"tem":1809,"avi":1810,"vo":1811,"road ":1812,"dge ":1813,"Bo":1814,"scen":1815,"13 ":1816,"fa":1817,"<unk> the ":1818,"that \" ":1819,"Ac":1820,"tively ":1821,". Dur":1822,"match ":1823,"gun":1824,"hor":1825,"ation , ":1826,"ouse ":1827,"recorded ":1828,"( <unk> ) ":1829,"km ":1830,"<unk> , the ":1831,"games ":1832,"top ":1833,"River ":1834,"refer":1835,". His ":1836,"State ":1837,"ruary ":1838,"ebruary ":1839," T":1840,"aug":1841,"written ":1842,"invol":1843,"exam":1844,"claim":1845,"rang":1846,"public ":1847,"Engl":1848,"estern ":1849,"named ":1850,"view ":1851,"stat":1852,"track ":1853,"dg":1854,"stan":1855,"Inter":1856,"February ":1857,"hout ":1858,"ns ":1859,"fel":1860,"light ":1861,"studi":1862,"further ":1863,"ject ":1864,"an <unk> ":1865,"can":1866,"fri":1867,"one of ":1868,"received ":1869,"ves ":1870,"book ":1871,"contr":1872,"spir":1873,"divi":1874,"12":1875,"you ":1876,"thing ":1877,"40 ":1878,"camp":1879,"equ":1880,"ants ":1881,"company ":1882,"import":1883,"fied ":1884,"urricane ":1885,"Sci":1886,"English ":1887,"ling ":1888,"ality ":1889,"ording to ":1890,"At":1891,"order ":1892,"ham ":1893,"ines ":1894,"event":1895,"ound":1896,"player ":1897,"mor":1898,"ampion":1899,"Gr":1900,"erg":1901,"exp":1902,"o , ":1903,"Chin":1904,"ys":1905,"Australian ":1906,"Cor":1907,"ni":1908,"exten":1909,"become ":1910,"different ":1911,"lost ":1912," On ":1913,"Har":1914,"moder":1915,"age of ":1916,"17 ":1917,"list":1918,"featur":1919,"gave ":1920,"proc":1921,"ult ":1922,"den":1923,"between the ":1924,"fron":1925,"ded to ":1926,"attack ":1927,"dren ":1928,"General ":1929,"bir":1930,"ock":1931,"signific":1932,"power ":1933,"site ":1934,"run ":1935,"support ":1936,"trans":1937,"career ":1938,"among ":1939,"wat":1940,"<unk> \" ":1941,"ress ":1942,"<unk> <unk> , ":1943,"ili":1944,"force ":1945,"University ":1946,"craft ":1947,"em ":1948,"ther":1949,"ounc":1950,"rown ":1951,"ange ":1952,"ds of ":1953,"part":1954,"complet":1955,"ution ":1956,"comb":1957,"ner ":1958,"ron ":1959,"10":1960,"Hi":1961,"bit":1962,"in which ":1963,"join":1964,"Mis":1965,"more than ":1966,"elevision ":1967,"vol":1968,"comman":1969,"cle":1970,"body ":1971,"through the ":1972,"Canad":1973,"ially ":1974,"went ":1975,"we ":1976,"seen ":1977,"... ":1978,"Cre":1979,"him":1980,"influ":1981,"ing and ":1982,"present ":1983,"Rob":1984,"sent ":1985,"ed on the ":1986,"agre":1987,"ograph":1988,"members ":1989,"ions ":1990,"rest":1991,"els ":1992,"given ":1993,"Pol":1994,"Rec":1995,"ds , ":1996,"ss":1997,"es that ":1998,"anese ":1999,"ed his ":2000,"review":2001,"of M":2002,"pris":2003,"Cent":2004,"erc":2005,"ed at ":2006,"ats ":2007,"oung ":2008,"person":2009,"Afric":2010,"eted ":2011,"ending ":2012,"include ":2013,"they were ":2014,"New York ":2015,"total ":2016,"Bar":2017,"stated ":2018,"V ":2019,"Church ":2020,". By ":2021,"title ":2022,"cros":2023,". When ":2024,".S":2025,"sch":2026,"white ":2027,"away ":2028,"nov":2029,"new":2030,"Ad":2031,"ref":2032,"acros":2033,"ash":2034,"yle ":2035,"concer":2036,"E ":2037,"Su":2038,"pression ":2039,"similar ":2040,"U.S":2041,"ney ":2042,"ems ":2043,"res ( ":2044,"the first ":2045,"ld":2046,"contain":2047,"Sp":2048,"cy":2049,"ploy":2050,"back":2051,"ang ":2052,"ers and ":2053,"des ":2054,"lead ":2055,"not":2056,"scri":2057,"aur":2058,"ler ":2059,"part of ":2060,"building ":2061,"Ang":2062,"Mc":2063,"Ser":2064,"ek ":2065,"had a ":2066,"xim":2067,"ole ":2068,"Compan":2069,"believ":2070,"Di":2071,"ither ":2072,"stric":2073,"production ":2074,"children ":2075,"never ":2076,"os ":2077,"thre":2078,"wea":2079,"<unk> . The ":2080,". These ":2081,"hy":2082,"rac":2083,"ed from ":2084,"arriv":2085,"ing of ":2086,"Japanese ":2087,"pea":2088,"ental ":2089,"tour":2090,"as well as ":2091,"days ":2092,"ably ":2093,"occur":2094,"fire ":2095,". There ":2096,"League ":2097,"prof":2098,"Willi":2099,"suff":2100,"replac":2101,"sts ":2102,"es . \n":2103,"det":2104,"Lon":2105,"how ":2106,"int":2107,"ensive ":2108,"earli":2109,"announc":2110,"due to ":2111,"es of the ":2112,"Comm":2113,"\" <unk> \" ":2114,") \n":2115,"face ":2116,"y and ":2117,"himself ":2118,"lik":2119,"development ":2120,"organiz":2121,"Re":2122,"ital ":2123,"common ":2124,"suggest":2125,"nec":2126,"intro":2127,"an , ":2128,"hol":2129,"ority ":2130,"church ":2131,"ribu":2132,"ted by ":2133,"ank":2134,"reported ":2135,"control ":2136,"London ":2137,"antry ":2138,"mark":2139,"moun":2140,"ped ":2141,"ex ":2142,"east":2143,"throughout ":2144,"Reg":2145,"Tim":2146,"at <unk> ":2147,"sions ":2148,"cast ":2149,"ert ":2150,"onom":2151,"a \" ":2152,"Road ":2153,"areas ":2154,"ech ":2155,"under the ":2156,"ept ":2157,"fail":2158,"night ":2159,"arti":2160,"an 's ":2161,"can be ":2162,"mer ":2163,"on @-@ ":2164,"was not ":2165,"gl":2166,"km ) ":2167,"having ":2168,"deci":2169,"eight ":2170,"father ":2171,"squ":2172,"ts , ":2173,". J":2174,"seven ":2175,"Qu":2176,"Pr":2177,"ok":2178,"s . The ":2179,"ank ":2180,"19 ":2181,"which was ":2182,"ine":2183,", he ":2184,"tin ":2185,"ford ":2186,"rol":2187,"ically ":2188,"tion of the ":2189,"div":2190,"ation of the ":2191,"ide":2192,"2010 ":2193,"located ":2194,"let":2195,"har":2196,"consist":2197,"Fe":2198,"arch":2199,"depend":2200,"mul":2201,"win ":2202,"ed to the ":2203,"ship":2204,"important ":2205,"No":2206,"Se":2207,"conc":2208,"ak ":2209,"tal":2210,"ub":2211,"ways ":2212,"roc":2213,"noted ":2214,"episod":2215,"mission ":2216,"previous ":2217,"as an ":2218,"ator ":2219,"estim":2220,"compe":2221,"club ":2222,"e the ":2223,"elec":2224,"prob":2225,"school ":2226,"introduc":2227,"television ":2228,"vill":2229,"won ":2230,"thought ":2231,"ends ":2232,"change ":2233,"short ":2234,"feet ":2235,"country ":2236,"troop":2237,"destroy":2238,"strong ":2239,"played ":2240,"into a ":2241,". Although ":2242,"2nd ":2243,"tory ":2244,"go ":2245,"get ":2246,"gun ":2247,"survi":2248,"anim":2249,"four":2250,"lev":2251,"reland ":2252,"trav":2253,"24 ":2254,"men":2255,"board ":2256,", with ":2257,"es . The ":2258,"m ( ":2259,"2 @.@ ":2260,"in 199":2261,"too ":2262,"ological ":2263,": \n":2264,"R ":2265,"experi":2266,"appoin":2267,"draw":2268,"s are ":2269,"ingdom ":2270,"Scot":2271,"Scient":2272,"lor":2273,"part ":2274,"work":2275,"end of the ":2276,"War":2277,"omen ":2278,"risti":2279,"s . \n":2280,"s that ":2281,"ing in ":2282,"rist":2283,"against the ":2284,"carri":2285,"Ireland ":2286,"bus":2287,". Acc":2288,"ific ":2289,"val":2290,"out of ":2291,"various ":2292,"1 @,@ ":2293,"Brig":2294,"publish":2295,"tech":2296,"ed to be ":2297,"establish":2298,"Rich":2299,"cam":2300,"ho":2301,"hind ":2302,"ed that the ":2303,". It is ":2304,"Europ":2305,"was also ":2306,"23 ":2307,"eal":2308,"taken ":2309,"60 ":2310,"28 ":2311,"West ":2312,"tl":2313,"s of the ":2314,"es in the ":2315,"eption ":2316,"ogether ":2317,"N ":2318,"fle":2319,"return ":2320,"modern ":2321,"Roy":2322,"<unk> ) ":2323,"tradi":2324,"should ":2325,"21 ":2326,"gar":2327,"ed \" ":2328,"<unk> , <unk> , ":2329,"Stre":2330,"political ":2331,"campa":2332,"scrip":2333," '":2334,"22 ":2335,"ta":2336,"ston ":2337,"relig":2338,"curren":2339,"Nav":2340,"pain":2341,"at a ":2342,"created ":2343,"however , ":2344,"ver ":2345,"<unk> @-@ ":2346,"round ":2347,"started ":2348,"month":2349,"ootball ":2350,"Christi":2351,", who ":2352,"earch ":2353,"ts of ":2354,"time , ":2355,"felt ":2356,"fre":2357,"ure":2358,"atures ":2359,"ration ":2360,"ularly ":2361,"sing ":2362,"grad":2363,"County ":2364,"making ":2365,"star ":2366,"completed ":2367,"Battalion ":2368,"heavy ":2369,"Ros":2370,"t to ":2371,"amm":2372,"idd":2373,"Sec":2374,"fig":2375,"rest ":2376,"using ":2377,"used to ":2378,"0 @.@ ":2379,"when the ":2380,"region ":2381,"roun":2382,"fav":2383,"tig":2384,"aged ":2385,"becom":2386,"along the ":2387,"long":2388,"my":2389,"island ":2390,"come ":2391,"ior ":2392,"ide ":2393,"lat":2394,"ust":2395,"eter ":2396,"performance ":2397,"style ":2398,"least ":2399,"diffic":2400,"urch":2401,". At ":2402,"originally ":2403,"26 ":2404,"Moun":2405,"Or":2406,"ed <unk> ":2407,"once ":2408,"tural ":2409,"born ":2410,"house ":2411,"wan":2412,"ze ":2413,"act":2414,"week ":2415,"13":2416,"mi ":2417,"tial ":2418,"marri":2419,"doc":2420,"<unk> was ":2421,"imp":2422,"que ":2423,"design ":2424,"rought ":2425,"good ":2426,") . The ":2427,"point ":2428,"km / ":2429,"represent":2430,"land":2431,"dom":2432,"inj":2433,"es are ":2434,"iment ":2435,"about the ":2436,"great ":2437,"15":2438,"rul":2439,"sha":2440,"live ":2441,"3 @.@ ":2442,"associ":2443,"order":2444,"from a ":2445," A ":2446,"re @-@ ":2447,"Ass":2448,") . \n":2449,"observ":2450,"released ":2451,"instead ":2452,"little ":2453,"hous":2454,"and was ":2455,"compar":2456,"km / h ":2457,"fem":2458,"gran":2459,"ium ":2460,"ament ":2461,"ounded ":2462,"cover":2463,"ient ":2464,"sw":2465,"ety ":2466,"aircraft ":2467,"southern ":2468,"boo":2469,"cir":2470,"sal":2471,"ington ":2472,"2011 ":2473,"im ":2474,". At the ":2475,"aver":2476,"World War ":2477,"29 ":2478,"hun":2479,"hom":2480,"behind ":2481,"prov":2482,"identi":2483,"audi":2484,"L ":2485,"2012 ":2486,". For ":2487,"Fin":2488,"’ ":2489,"Army ":2490,"Kingdom ":2491,"either ":2492,"inning ":2493,"anti":2494,"train":2495,"radi":2496,"ams ":2497,"emor":2498,"ages ":2499,"forces ":2500,"ing that ":2501,"others ":2502,"ampionship ":2503,"significant ":2504,"James ":2505,"wif":2506,"has a ":2507,"eve ":2508,"of H":2509,"and S":2510,"iron":2511,"2008 ":2512,"aster ":2513,"highway ":2514,"successful ":2515,"Pal":2516,"cop":2517,"itar ":2518,"ever":2519,". While ":2520,"Euro":2521,"possible ":2522,"Royal ":2523,"cr":2524,"termin":2525,"2007 ":2526,"within the ":2527,"owever ":2528,"De":2529,"It ":2530,"added ":2531,"discover":2532,"wards ":2533,"respec":2534,"oute ":2535,"hear":2536,"grow":2537,"eastern ":2538,"ib":2539,"prais":2540,"six":2541,"every ":2542,"e , but ":2543,"fif":2544,"row ":2545,"full ":2546,"towards ":2547,"ix":2548,"jec":2549,"tar":2550,"together ":2551,"ering ":2552,"ted the ":2553,"lands ":2554,"No. ":2555,"loo":2556,"wo ":2557,"ina ":2558,"omb":2559,"exic":2560,"till":2561," L":2562,"US":2563,"ind":2564,"dividu":2565,"El":2566,"New":2567,"th and ":2568,"recog":2569,"black ":2570,"minist":2571,"eventually ":2572," C":2573,"1st ":2574,"reli":2575,"of B":2576,"atter":2577,"spor":2578,"ated the ":2579,"mix":2580,"Street ":2581,"Mor":2582,"ring ":2583,"songs ":2584,"F ":2585,"Tur":2586,"evid":2587,"comment":2588,"players ":2589,"popular ":2590,"lab":2591,". K":2592,"almost ":2593,"190":2594,"in ) ":2595,"ing \" ":2596,"route ":2597,"close ":2598,"separ":2599,"America ":2600,"subsequ":2601,"characters ":2602,"Hol":2603,"ability ":2604,"miles ( ":2605,". He was ":2606,"signed ":2607,"dou":2608,"saw ":2609,"voc":2610,"conn":2611,"200 ":2612," = = = = ":2613,"while the ":2614,"27 ":2615,"addition ":2616,"relation":2617,"individu":2618,"s , but ":2619,"works ":2620,"Australia ":2621,"described ":2622,"human ":2623,"Europe":2624,"ash ":2625,"put ":2626,"avid ":2627,"level ":2628,"ments ":2629,"ase ":2630,"wide ":2631,"open ":2632,"propos":2633,"northern ":2634,"fully ":2635,"laun":2636,"En":2637,"fall ":2638,"hon":2639,"young ":2640,"moved ":2641,"few ":2642,"near":2643,"yard ":2644,"ext":2645,"2009 ":2646,"er of ":2647,"el , ":2648,"itted ":2649,"by a ":2650,"track":2651,"prepar":2652,"ences ":2653,"William ":2654,"fr":2655,"mid ":2656,"natur":2657,"\" . The ":2658,"ucle":2659,"2006 ":2660,"aid ":2661,"rap":2662,"exist":2663,"shor":2664,"sci":2665,"release ":2666,"ready ":2667,"involv":2668,"Atlan":2669,"East ":2670,"Sy":2671,"women ":2672,"adem":2673,"Carey ":2674,"exampl":2675,"met ":2676,"wood ":2677,"in M":2678,"th , ":2679,"move ":2680,"Song ":2681,"brought ":2682,"say":2683,"sold ":2684,"ens":2685,"on , ":2686,"adron ":2687,"theast ":2688,"damage ":2689,"You ":2690,"civ":2691,"'s <unk> ":2692,"bodi":2693,"group":2694,"central ":2695,"Park ":2696,"population ":2697,"piec":2698,"Scientology ":2699,"th @-@ ":2700,"e , which ":2701,"ained ":2702,"does ":2703,"before the ":2704,"Christ":2705,"features ":2706,"film":2707,"Dyl":2708,"date ":2709,"ink ":2710,"Co":2711,"down":2712,"eum ":2713,"mother ":2714,"western ":2715,"arded ":2716,"stage ":2717,"largest ":2718," and ":2719," Th":2720,"Cha":2721,"event ":2722,". In":2723,"centur":2724,"mph ":2725,"ession ":2726,"ement":2727,"general ":2728,"construction ":2729,"campaign ":2730,"BC ":2731,"Ev":2732,"Ex":2733,"nomin":2734,"acti":2735,"occ":2736,"ed by a ":2737,"scre":2738,"river ":2739,"competi":2740,"Cap":2741,"figh":2742,"plann":2743,"rather ":2744,"<unk> of the ":2745,"\" was ":2746,"\" The ":2747,"service ":2748,"captur":2749,"rad":2750,"sour":2751,"indic":2752,"langu":2753,"hurricane ":2754,"in L":2755,"stren":2756,"conclu":2757,"see ":2758,"provided ":2759,"cycl":2760,"hour":2761,"in B":2762,"achi":2763," W":2764,"ern":2765,"opp":2766,"return":2767,"effor":2768,". G":2769,"compos":2770,"<unk> , a ":2771,"up to ":2772,"chae":2773,"Ed":2774,"all , ":2775," In the ":2776,"Mic":2777,"member ":2778,"tics ":2779,"Y ":2780,"cat":2781,"cent ":2782,"s a ":2783,"irst ":2784,"bet":2785,"working ":2786,"settl":2787,"Geor":2788,"streng":2789,"500 ":2790,"ker ":2791,"to have ":2792,"stone ":2793,"stand":2794,"es , and ":2795,"leav":2796,"Kor":2797,"Rus":2798,"ald ":2799,"generally ":2800,"pitch":2801,"International ":2802,"for his ":2803,"ull ":2804,"ation and ":2805,"shot ":2806,"Mag":2807,"Som":2808,"won the ":2809,"\" , and ":2810,"employ":2811,"meas":2812," Al":2813,"Min":2814,"dev":2815,"ix ":2816,"e @-@ ":2817,"al , ":2818,"aul ":2819,"nucle":2820,"s in the ":2821,"rep":2822,"\" the ":2823,"ession":2824,"age , ":2825,"conduc":2826,"80 ":2827,"in an ":2828,"Company ":2829,"Rep":2830,"Squ":2831,"ra ":2832,"e 's ":2833,"Roman ":2834,"room ":2835,"she was ":2836,"around the ":2837,"tan":2838,"units ":2839,"suppor":2840,"European ":2841,"neg":2842,"nia ":2843,"ark ":2844,"ush":2845,"poem ":2846,"director ":2847,"70 ":2848,"road":2849,"commerc":2850,"find ":2851,"broad":2852,"eel":2853,"events ":2854,"public":2855,"previously ":2856,"any":2857,"ed of ":2858,"with his ":2859,"avail":2860,"particularly ":2861,"Pri":2862,"cou":2863,"is also ":2864,"appearance ":2865,"responsi":2866,"Jew":2867,"Val":2868,"domin":2869,"pen":2870,"soon ":2871,"lear":2872,"lower ":2873,"ence of ":2874,"where the ":2875,"George ":2876,"King ":2877,"Mo":2878,"nav":2879,"n 't ":2880,"addi":2881,"promo":2882,"soldi":2883,". With ":2884,"fourth ":2885,"iddle ":2886,"TV ":2887,"leng":2888,"or , ":2889,"viol":2890,"help ":2891,"busin":2892,"conv":2893,"prev":2894,"began to ":2895,"Hor":2896,"nar":2897,"tou":2898,"above ":2899,"prec":2900," After ":2901,"known as ":2902,"espite ":2903,"foc":2904,"key ":2905,"spe":2906,"ester ":2907,"189":2908,"remov":2909,"structure ":2910,"Du":2911,"mach":2912,"era ":2913,"ing his ":2914,"at least ":2915,"class ":2916,"mid @-@ ":2917,"Jer":2918,"ama ":2919,"formation ":2920,"within ":2921,"azine ":2922,"Island ":2923,"requir":2924,"combin":2925,"Ri":2926,"ces ":2927,"les":2928,"estimated ":2929,"sian ":2930,"ospit":2931,"until the ":2932,"control":2933,"considered ":2934,". During the ":2935,"Zeal":2936,"yn":2937,"yards ":2938,"uni":2939,"enter":2940,"range ":2941,"ment of ":2942,"operations ":2943,"Chinese ":2944,"he had ":2945,"New Zeal":2946,"ff ":2947,"reduc":2948,"ap ":2949,"secur":2950,"ritain ":2951,"mean":2952,"official ":2953,"may be ":2954,"reached ":2955,"earlier ":2956,"Best ":2957,"Flor":2958,"Route ":2959,"hael ":2960,"mater":2961,"depic":2962,"resident ":2963," 's ":2964,", as ":2965,"reve":2966,"to his ":2967,"ics ":2968,"activ":2969,"ers were ":2970,"goal ":2971,"battle ":2972,"David ":2973,"Pac":2974,"Port":2975,"athe":2976,"non @-@ ":2977,"= = = = \n":2978,"school":2979,"is not ":2980,"ts and ":2981,"serve ":2982,"2013 ":2983,"ft ) ":2984,"continued to ":2985,"Feder":2986,"cel":2987,"da":2988,"reas":2989,"by <unk> ":2990,"standing ":2991,"Ear":2992,"thwest ":2993,"plan":2994,"ate the ":2995,"end of ":2996," Wh":2997,"Bi":2998,"Cam":2999,"wid":3000,"portra":3001,"t and ":3002,"use of ":3003,") , and ":3004,"All ":3005,"Ir":3006,"whom ":3007,"ago ":3008,"prote":3009,"based on ":3010,"great":3011,"character":3012,"gres":3013,"1 – ":3014,"Robert ":3015,"0s , ":3016,"nine ":3017,"amoun":3018,"liv":3019,"class":3020,"writing ":3021,"throughout the ":3022,"Hen":3023,"ed as a ":3024,"in S":3025,"highest ":3026,"drew ":3027,"Music ":3028,"pic":3029,"4 @.@ ":3030,"victory ":3031,"God ":3032,"hand":3033,"ard":3034,"ster ":3035,"accoun":3036,"en , ":3037,"ches ":3038,"clas":3039,"desp":3040,"season , ":3041,"points ":3042,"opening ":3043,"likely ":3044,"45 ":3045,"omas ":3046,"project ":3047,"exec":3048,". \" The ":3049,"Inf":3050,"ency ":3051,"Republ":3052,"han":3053,". The <unk> ":3054,"contribu":3055,"special ":3056,"Indian ":3057,"across the ":3058,"Be":3059,"word ":3060,"Cup ":3061,"Gal":3062,"Rom":3063,"Tr":3064,"tour ":3065,"ers of ":3066,"trac":3067,"ument ":3068,"Ha":3069,"net":3070,"inspir":3071,"ense ":3072,"itself ":3073,"assist":3074,"livi":3075,"territ":3076,"Stor":3077,"porary ":3078,"Franc":3079,"situ":3080,"novel ":3081,"occup":3082,"NY ":3083,"teen ":3084,"utive ":3085,"stra":3086,"aliz":3087,"along with ":3088,"aff ":3089,"and his ":3090,"gram ":3091,"effec":3092,"Battle ":3093,"author":3094,". According to ":3095,"Atlantic ":3096,"First ":3097,"or <unk> ":3098,"ope ":3099,"ers to ":3100,"in 198":3101,"series of ":3102,"including the ":3103,"mb":3104,". <unk> , ":3105,"immedi":3106,"flic":3107,"oday ":3108,"love ":3109,"initially ":3110,"community ":3111,"75 ":3112,"red to ":3113,"sor":3114,"in their ":3115,"ential ":3116,"known as the ":3117,"Ver":3118,"priv":3119,"told ":3120,"sport ":3121,"syn":3122,"outside ":3123,"despite ":3124,"Eg":3125,"hit ":3126,"mary ":3127,"ing it ":3128,"ask":3129,"plat":3130,"plan ":3131,"ocial ":3132,"recogn":3133,"Rev":3134,"Scho":3135,"<unk> in the ":3136,"er of the ":3137,"ess , ":3138,"oppos":3139,"depression ":3140,"vers":3141,"augh":3142,"ximately ":3143,"Lor":3144,"us , ":3145,"erous ":3146,"onn":3147,"ones ":3148,"usually ":3149,"spea":3150,"ies , ":3151," = = = <unk> ":3152,"atic ":3153,"ed . \n":3154,"argu":3155,"at number ":3156,"econom":3157,"whose ":3158,"worked ":3159,"meet":3160,"sure ":3161,"Regiment ":3162,"give ":3163,"mur":3164,"forward ":3165,"all the ":3166,"entire ":3167,"discus":3168,"ah ":3169,"bility ":3170,"dat":3171,"far ":3172,"tures ":3173,"already ":3174,"\" ( ":3175,"term ":3176,"formed ":3177,"eeded ":3178,"coast ":3179,"probably ":3180," ( ":3181,"Fil":3182,"edi":3183,"£ ":3184,"es a ":3185,"Union ":3186,"playing ":3187,"tors ":3188,"metres ( ":3189,"latter ":3190,"hand ":3191,"in <unk> , ":3192,"expres":3193,"ts to ":3194,"edit":3195,"Brigade ":3196,"Paul ":3197,"cil ":3198,"mir":3199,"they are ":3200,"colon":3201,"Viet":3202,"II":3203,"Po":3204,"year , ":3205,"duce ":3206,"31 ":3207,"Day ":3208,"Im":3209,"dro":3210,"declar":3211,"surroun":3212,"Fre":3213,"cast":3214,"i , ":3215,"ligh":3216,"lack ":3217,"stly ":3218,"shar":3219,"2004 ":3220,"secon":3221,"who had ":3222,"minut":3223,"small":3224,"appointed ":3225,"Infantry ":3226,"Egyp":3227,"Vic":3228,"aut":3229,"ox":3230,"<unk> on ":3231,"acy ":3232,"estig":3233,"defin":3234,"souri":3235,"Vill":3236,"native ":3237,"Championship ":3238,"studio ":3239,"profession":3240,"Mi":3241,"bit ":3242,"alth ":3243,"enough ":3244,"a was ":3245,"urb":3246,"progr":3247,"post":3248,"command ":3249,"international ":3250,"White ":3251,"John":3252,"Missouri":3253,"U.S. ":3254,"repor":3255,"with <unk> ":3256,"aper ":3257,"s and the ":3258,"section ":3259,"188":3260,"decision ":3261,"off the ":3262,"aj":3263,"dings ":3264,"hold ":3265,"nearly ":3266,"ym":3267,"th centur":3268,"eep ":3269,"birds ":3270,"troops ":3271,"returned to ":3272,"better ":3273,"Govern":3274,"daugh":3275,"pil":3276,"post ":3277,"osaur":3278,"ingly ":3279,"ed in a ":3280,"beginning ":3281,"Air":3282,"dol":3283,"ials ":3284,"err":3285,"ur ":3286,"happ":3287,". I ":3288,"sea ":3289,"court ":3290,"defeated ":3291,"Angel":3292,"electr":3293,"sil":3294,"s , which ":3295,"abor":3296,"ated to ":3297,"ood":3298,"all of ":3299,"astern ":3300,"Hero ":3301,"feet ( ":3302,"Navy ":3303,"Bra":3304,"cover ":3305,"ris ":3306,"independ":3307,"alis":3308,"ret":3309,"that it ":3310,". Some ":3311,"regular ":3312,"could be ":3313,"a few ":3314,"weeks ":3315,"Black ":3316,"France ":3317,"leading ":3318,"35 ":3319,"Ne":3320,"agu":3321,"liament ":3322,"occas":3323,"launch":3324,"Florid":3325,"High":3326,"Oper":3327,"Vir":3328,"ke":3329,"omet":3330,"was releas":3331,"but the ":3332,"ruis":3333,"recording ":3334,"does not ":3335,"rd ":3336,"a . \n":3337,"ecially ":3338,"amb":3339,"rab":3340,"spent ":3341,"flo":3342,"panish ":3343,"developed ":3344,"especially ":3345,"90 ":3346,"ment":3347,"rate ":3348,"on September ":3349,"league ":3350,"presid":3351,"supported ":3352,"approximately ":3353,"\" and \" ":3354,"Ham":3355,"ai ":3356,"ket ":3357,"feder":3358,"rock ":3359,"Pacific ":3360,"Cath":3361,"Jack":3362,"educ":3363,"might ":3364,"t 's ":3365,"alter":3366,"read ":3367,"finish":3368,"Carol":3369,"case ":3370,"3rd ":3371,"race ":3372,"is an ":3373,"turned ":3374,"a ( ":3375,"ourn":3376,"person ":3377,"month ":3378,"running ":3379,"rather than ":3380,"New Zealand ":3381,"ied ":3382,"law":3383,"in , ":3384,"super":3385,"upon ":3386," ) ":3387,"38 ":3388,"Gi":3389,"Mad":3390,"expan":3391,"spac":3392,"ument":3393,"police ":3394,"liter":3395,"multi":3396,"religious ":3397,"mi ) ":3398,"relationship ":3399,"III ":3400,"din":3401,"jects ":3402,"mas":3403,"probl":3404,"debut ":3405,"2 – ":3406,"rela":3407,"positive ":3408,"advanc":3409,"Phili":3410,"complete ":3411,"Canadian ":3412,"commercial ":3413,"Award ":3414,"Jos":3415,"One ":3416,"past ":3417,"tt":3418,"unc":3419,"archae":3420,"a new ":3421,"nother ":3422,"ells ":3423,"elling ":3424,"appear ":3425,"Great ":3426,"Charles ":3427,"techn":3428,"additional ":3429,"Cro":3430,"kil":3431,"le , ":3432,"ales ":3433,"als , ":3434,"or of ":3435,"Creek ":3436,"Christian ":3437,"must ":3438,"sex":3439,"test":3440,"quick":3441,"break":3442,"order to ":3443,"exico ":3444,"Ab":3445,"President ":3446,"football ":3447,"lay":3448,"y 's ":3449,"active ":3450,"habit":3451,"impro":3452,"crew ":3453,"particip":3454,"provide ":3455,"achiev":3456,"Cour":3457,"plic":3458,"mostly ":3459,"ence , ":3460,"caused ":3461,"fleet ":3462,"ith":3463,"law ":3464,"ness ":3465,"that was ":3466,"<unk> , <unk> ":3467,"ldham ":3468,"Irish ":3469,"ban":3470,"ran ":3471,"sh ":3472,"sem":3473,". To ":3474,"chart ":3475,"capital ":3476,"published ":3477,"called the ":3478,"scene ":3479,"Associ":3480,"dri":3481,"ars ":3482,"tion , ":3483,"oot ":3484,". One ":3485,"servic":3486,"ause of ":3487,"success ":3488,"near the ":3489,"ders ":3490,"van":3491,"wit":3492,"2005 ":3493,"ota ":3494,"when he ":3495,"writer ":3496,"righ":3497,"ference ":3498,"! ":3499,"co @-@ ":3500,"ox ":3501,"é ":3502,"<unk> , which ":3503," = = = \n":3504,"mod":3505,"Play":3506,"sometimes ":3507,"quarters ":3508,"History ":3509,"Michael ":3510,"RA":3511,"cut ":3512,"level":3513,"rated ":3514,"ed it ":3515,"ted in ":3516,". An ":3517,"2015 ":3518,"became the ":3519,"remaining ":3520,"evidence ":3521,"available ":3522,"Bill":3523,"UK":3524,"Western ":3525,"woman ":3526,"ere":3527,"real ":3528,"adop":3529,"shown ":3530,"two @-@ ":3531,"186":3532,"phys":3533,". On":3534,"base ":3535,"child ":3536,"stitu":3537,"subsequently ":3538,"Virg":3539,"Op":3540,"so":3541,"elements ":3542,"aint ":3543,"him to ":3544,"Thomas ":3545,"study ":3546,"division ":3547,"list ":3548,"rout":3549,"ateg":3550,"an and ":3551,"where he ":3552,"chap":3553,"after":3554,"tillery ":3555,"Gl":3556,"alist ":3557,"onic ":3558,"is , ":3559,"imag":3560,"ump":3561,"pool ":3562,"2003 ":3563,"contem":3564,"established ":3565,"Air ":3566,"frequ":3567,"ual":3568,"of its ":3569,"states ":3570,"2 @,@ ":3571,"not be ":3572,". Other ":3573,"collec":3574,"critics ":3575,"quickly ":3576," N":3577,"male ":3578,"soci":3579,"e <unk> ":3580,"ung ":3581,"ull":3582,"commis":3583,"three @-@ ":3584,"music":3585,"bridge ":3586,"touch":3587,"Ag":3588,"Tre":3589,"fru":3590,"gold ":3591,"med":3592,"ting the ":3593,"of \" ":3594,"his first ":3595,"tions of ":3596,"ustry ":3597,"positions ":3598,". On the ":3599,"aim ":3600,"female ":3601," R":3602,"dam ":3603,"rat":3604,"vice ":3605,"on <unk> ":3606,"in 196":3607,". As a ":3608,"strict ":3609,"fighting ":3610,"Ber":3611,"Game ":3612,"San ":3613,"of L":3614,"<unk> , who ":3615,"floo":3616,". He also ":3617,"was the first ":3618,"guns ":3619,"difficult ":3620,"Squadron ":3621,"Au":3622,"Jord":3623,"Ke":3624,"Off":3625,"iting ":3626,"ding the ":3627,"phas":3628,"charg":3629,"continued ":3630,"Jewish ":3631,"It":3632,"Oly":3633,"food ":3634,"social ":3635,"staff ":3636,"ades ":3637,". Two ":3638,"certain ":3639," Dur":3640,"400 ":3641,"efore ":3642,"vest":3643,"anal":3644,"reti":3645,"on to ":3646,"adap":3647,"rail":3648,"program ":3649,"ations , ":3650,". Despite ":3651,"majority ":3652,"Early ":3653,"dres":3654,"\" a ":3655," , which ":3656," = = <unk> ":3657,"alifor":3658,"finished ":3659,"army ":3660,"larger ":3661,"due to the ":3662,"Phil":3663,"months ":3664,"dral ":3665,"ots ":3666,". St":3667,"acqu":3668,"turn ":3669,"titled ":3670,"returned ":3671,"lyric":3672,"athedral ":3673,"Cathol":3674,"y the ":3675,"ed with the ":3676,"ush ":3677,"prin":3678,"produced ":3679,"primary ":3680,"power":3681,"themsel":3682,"manager ":3683,"ership ":3684,"the most ":3685,"extr":3686,"Guitar ":3687,"largely ":3688,"atin ":3689,"weak":3690,"Olymp":3691,"Mal":3692,"eir ":3693,"actions ":3694,"6 @.@ ":3695,"financ":3696,"training ":3697,"Britain ":3698,"Sha":3699,"Spanish ":3700,"driv":3701,"top":3702,"election ":3703,"ded by ":3704,"have a ":3705,"interest ":3706,"syl":3707,"suppl":3708,"remained ":3709,"killed ":3710,"temper":3711,"’ s ":3712,"celeb":3713,"Dr":3714,"Man ":3715,"always ":3716,"itte":3717,"with an ":3718,"ated by ":3719,"ings , ":3720,"based ":3721,"weight ":3722,"magazine ":3723,"average ":3724,"Em":3725,"Fi":3726,"c ":3727,"eding ":3728,"ric ":3729,"arrang":3730,"allow ":3731,"enj":3732,"th of ":3733," , but ":3734,"owle":3735,"aband":3736,"critical ":3737,"in 197":3738,"accep":3739,"winning ":3740,"Wales ":3741,"Central ":3742,"every":3743,"Califor":3744,"s from ":3745,"asp":3746,"chor":3747,"condi":3748,"dead ":3749,"via ":3750,"traff":3751,"such as the ":3752,"future ":3753,"since the ":3754,"peak ":3755,"Dylan ":3756,"Mer":3757,"Tech ":3758,"bil":3759,"ep ":3760,"rain ":3761,"3 – ":3762,"4 – ":3763,"investig":3764,"taking ":3765,"ordin":3766,"organis":3767,"process ":3768,"current ":3769,"ik":3770,", in ":3771,"er was ":3772,"on his ":3773,"al and ":3774,"<unk> and the ":3775,"movement ":3776,"language ":3777,"daughter ":3778,"Billboard ":3779,"Itali":3780,"4th ":3781,"don":3782,"fall":3783,"job":3784,"mm ) ":3785,"<unk> were ":3786,"ening ":3787,"conflic":3788,"lege ":3789,"son , ":3790,"Comman":3791,"polic":3792,"direct ":3793,". Later ":3794,"constructed ":3795,"treat":3796,"Gro":3797,"free ":3798,"jected ":3799,"sus":3800,"indu":3801,"of T":3802,"er to ":3803,"or the ":3804,"sia ":3805,"interest":3806,". Follow":3807,"engine":3808,"Isra":3809,"schol":3810,"decided to ":3811,"Hill ":3812,"crow":3813,"ano ":3814,"env":3815,"in its ":3816,"chi":3817,"from <unk> ":3818,"ulp":3819,"defeat ":3820,"classi":3821,"enem":3822,"@-@ yard ":3823,"ques":3824,"princ":3825,"money ":3826,"lines ":3827,"became a ":3828,"back to ":3829,"response ":3830,"limited ":3831,"maintain":3832,"commander ":3833,"clear ":3834,"ography ":3835,"Sou":3836,"Shi":3837,"nel ":3838,"sent":3839,"ana ":3840,"chas":3841,"exper":3842,"185":3843,"meth":3844,"prior ":3845,"contract ":3846,"associated ":3847,"material ":3848,"smaller ":3849,"professional ":3850,"Met":3851,"Olivi":3852,"led to ":3853,"oid ":3854,"send ":3855,"of <unk> , ":3856,"<unk> <unk> and ":3857,"ranked ":3858,"The":3859,"Bay ":3860,"da ":3861,"eign ":3862,"mot":3863,"<unk> for ":3864,"in the <unk> ":3865,"bul":3866,"ultim":3867,"for the first ":3868,"includes ":3869,"Mari":3870,"Northern ":3871,"Force ":3872,"Grand ":3873,"Henry ":3874,"eu":3875,"thes":3876,"t was ":3877,", it ":3878,"to make ":3879,"whil":3880,"that they ":3881,"leave ":3882,"seas":3883,"rough ":3884,"ances ":3885,"ichig":3886,"necess":3887,"Europe ":3888,"natural ":3889,"th century , ":3890,"Oldham ":3891,"mig":3892,"artillery ":3893,"determin":3894,"parts ":3895,"musical ":3896,"attempt to ":3897,"owever , the ":3898,"fol":3899,"of which ":3900,"tions , ":3901,"feature ":3902,"would have ":3903,"office ":3904,"operation ":3905,"effects ":3906,"friend ":3907,"Der":3908,"Town":3909,"jud":3910,"sound ":3911,"ed at the ":3912,"whether ":3913,"proper":3914,"edy ":3915,"directly ":3916,"surviv":3917,"Roman":3918,"Mil":3919,"drop":3920,"ians ":3921,"oth ":3922,"tion = = \n":3923,"che":3924,"enty ":3925,"finally ":3926,"research ":3927,"following the ":3928,"Germany ":3929,"anti @-@ ":3930,"private ":3931,"Gul":3932,"ia , ":3933,"s for ":3934,"antly ":3935,"unit ":3936,"in the United States ":3937,"tru":3938,"atten":3939,"sculp":3940,"overall ":3941,"norm":3942,"there were ":3943,"casual":3944,"weap":3945,"advant":3946,"morning ":3947,"detail":3948,"longer ":3949,"Mac":3950,"ge":3951,"idi":3952,"aries ":3953,"of their ":3954,"ille ":3955,"ady ":3956,". The first ":3957,"tionally ":3958,"poor ":3959,"<unk> <unk> <unk> ":3960,"week":3961,"break ":3962,"Japan ":3963,"sched":3964,"soldiers ":3965,"kilomet":3966,"aul":3967,"cal":3968,"tac":3969,"yet ":3970,"ed from the ":3971,"ray ":3972,"peror ":3973,"because of ":3974,"draw ":3975,"tropical storm ":3976,"African ":3977,"across ":3978,"traffic ":3979,"300 ":3980,"48 ":3981,"B ":3982,"zz":3983,"review ":3984,"ight":3985,"Mark ":3986,"below ":3987,"Times ":3988,"wife ":3989,"Bur":3990,"gir":3991,"as it ":3992,"administ":3993,"chall":3994,"promin":3995,"ovi":3996,"ized ":3997,"particular ":3998,"Richard ":3999,"Guitar Hero ":4000,"37 ":4001,"Old ":4002,"mom":4003,"<unk> ; ":4004,"sta":4005,"es \" ":4006,"was re":4007,"estiv":4008,"for their ":4009,"e , a ":4010,"living ":4011,"theat":4012,"ounds ":4013,"poten":4014,"create ":4015,"poss":4016,"surface ":4017,"coach ":4018,"fact ":4019,"day , ":4020,"front ":4021,"Second ":4022,"radio ":4023,"Missouri ":4024,"Croati":4025,"9th ":4026,"Tri":4027,"ids ":4028,"memor":4029,"tons ":4030,"ans":4031,"enon ":4032,"in @-@ ":4033,"actor ":4034,"asked ":4035,"old":4036,"'s first ":4037,"eway ":4038,"187":4039,"I '":4040,"achel ":4041,"transi":4042,"Georg":4043,". During ":4044,"5th ":4045,"O ":4046,"co ":4047,"ed an ":4048,"distri":4049,"strong":4050,"eph":4051,"than the ":4052,"ional ":4053,"explain":4054,"referred to ":4055,"partment ":4056,"idea ":4057,"favor":4058,"double ":4059,"responsible ":4060,"activity ":4061,"immediately ":4062,"lack of ":4063,"distribu":4064,"ais":4065,"died ":4066,"exas ":4067,"party ":4068,"ayl":4069,"Chic":4070,"minute ":4071,"numb":4072,"legal ":4073,"newsp":4074,"tournam":4075,"Victor":4076,"47 ":4077,"Hel":4078,"Red ":4079,"batter":4080,"mond ":4081,"unable to ":4082,". Un":4083,"of D":4084,"ent , ":4085,"stars ":4086,"selected ":4087,"goals ":4088,"each other ":4089,"venue ":4090,"Maj":4091,"archit":4092,"cyclone ":4093,"0 , the ":4094,"Jin ":4095,"Tor":4096,"bran":4097,"hop":4098,"mos":4099,"ar , ":4100,"of P":4101,"escap":4102,"5 @.@ ":4103,"rup":4104,"upper ":4105,"engag":4106,"written by ":4107,"expected ":4108,"Storm ":4109,"Florida ":4110,"ude ":4111,"wal":4112,"report ":4113,"enth ":4114,"emo":4115,"see":4116,". In 200":4117,"i @-@ ":4118,"ishop ":4119,"in 195":4120,". Most ":4121,"infantry ":4122,"Sun ":4123,"intell":4124,"reveal":4125,": The ":4126,"Cros":4127,"thus ":4128,"ories ":4129,"on 's ":4130,"ess of ":4131,"everal ":4132,"coming ":4133,". Its ":4134,"term":4135,"Studi":4136,"greater ":4137,"said that ":4138,"aught ":4139,"Hurricane ":4140,"Jack ":4141,"Latin ":4142,"ean":4143,"ram":4144,"<unk> <unk> ( ":4145,"awarded ":4146,"United Kingdom ":4147,"famil":4148,"quarter ":4149,"Christm":4150,"FI":4151,"M ":4152,"ax":4153,"ben":4154,"done ":4155,"fell ":4156,"hospit":4157,". U":4158,"ower ":4159,"most of the ":4160,". From ":4161,"game 's ":4162,"companies ":4163,"battalion ":4164,"summer ":4165,"business ":4166,"Brown ":4167,"FA ":4168,"Res":4169,"Tropical ":4170,"tun":4171,", although ":4172,"on August ":4173,"acting ":4174,"uments ":4175,"e of a ":4176,"meant ":4177,"annual ":4178,"winds ":4179,"( <unk> ) , ":4180,"embly ":4181,"highly ":4182,"pursu":4183,"wanted to ":4184,"Portug":4185,"Philipp":4186,"Cong":4187,"He ":4188,"brig":4189,"pair ":4190,"ing <unk> ":4191,"minor ":4192,"brother ":4193,". After the ":4194,"distinc":4195,"traditional ":4196,"shap":4197,"circ":4198,"activi":4199,"School ":4200,"Gar":4201,"Sar":4202,"ger ":4203,"ped":4204,"emerg":4205," = = D":4206,"2010 , ":4207,"sail":4208,"\" , \" ":4209,"ease ":4210,"scored ":4211,"experience ":4212,"greatest ":4213,"Light ":4214,"T ":4215,"ah":4216,"ball":4217,"ken ":4218,"o 's ":4219,"isl":4220,"lies ":4221,". An":4222,"Star ":4223,"Parliament ":4224,"North Kor":4225,"media ":4226,"mixed ":4227,"th @-@ century ":4228,"machine ":4229,"slow":4230,"think ":4231,"in this ":4232,"itch":4233,"confir":4234,"claim ":4235,"Station ":4236,". In addition ":4237,"purpos":4238,"transfer":4239,"fifth ":4240,"competition ":4241," P":4242,"ators ":4243,"siz":4244,"ety of ":4245,"ights ":4246,"son 's ":4247,"starting ":4248,"advance ":4249,"Manil":4250,"rest of the ":4251,"M @-@ ":4252,"Soci":4253,"ee ":4254,"fight ":4255,"ination ":4256,"really ":4257,"ica ":4258,"deal ":4259,"dedic":4260,"seem":4261,"incor":4262,"continue ":4263,"32 ":4264,"Mr":4265,"s on ":4266,"station ":4267,"an un":4268,"siv":4269,"s , including ":4270,"lie ":4271,"promis":4272,"who was ":4273,"know ":4274,"album , ":4275,"approach":4276,"explo":4277,"performanc":4278,"aylor ":4279,"Emp":4280,"eth":4281,"gas ":4282,"the same ":4283,"a @-@ ":4284,"did":4285,"progres":4286,"trade ":4287,"pre @-@ ":4288,". Many ":4289,"going ":4290,"well @-@ ":4291,"Council ":4292,"increased ":4293,"students ":4294,"func":4295,"Museum ":4296,"artist ":4297,"security ":4298,"network ":4299,"themselves ":4300,"sylvan":4301,"abandon":4302,"middle ":4303,"sons ":4304,"plans ":4305,"for its ":4306,"deb":4307,"ightly ":4308,"; he ":4309,"score ":4310,"fiel":4311,"related ":4312,"approach ":4313,"experienc":4314,"president ":4315,"Year ":4316,"s \" ":4317,"is <unk> ":4318,"Stev":4319,"up the ":4320,". She was ":4321,"stein ":4322,"invas":4323,"side of the ":4324,"intensity ":4325,"Enter":4326,"contemporary ":4327,"Var":4328,"hour ":4329,"of these ":4330,"and , ":4331,"ild ":4332,"whole ":4333,"had to ":4334,"ance of ":4335,"saf":4336,"influence ":4337,"influenc":4338,"techni":4339,"individual ":4340,"nearby ":4341,"broadcast ":4342,"ichigan ":4343,"Ale":4344,"Love ":4345,"host ":4346,"nest ":4347,"ine , ":4348,"unity ":4349,"refl":4350,"ened ":4351,"was to ":4352,"dig":4353,"year @-@ ":4354,"flight ":4355,"northeast ":4356,"numerous ":4357,"later , ":4358,"according to ":4359,"ivers":4360,"damaged ":4361,"naval ":4362,"characteris":4363,"150 ":4364,"Bus":4365,"NA ":4366,"Sing":4367,"bow":4368,"hus":4369,"<unk> with ":4370,"stating ":4371,"Commission ":4372,"teach":4373,"primar":4374,"slightly ":4375,"initial ":4376,"heavily ":4377,"voice ":4378,"members of the ":4379,"Jordan ":4380,"Bal":4381,"Fri":4382,"Fort ":4383,"Sim":4384,"bly ":4385,"car ":4386,"ton":4387,"onc":4388,"percent ":4389,"umb":4390,"offensive ":4391,"Wheel":4392,"wind ":4393,"ording to the ":4394,"completely ":4395,"respectively ":4396,"33 ":4397,"bird ":4398,"dated ":4399,"sis":4400,"wounded ":4401,"as <unk> ":4402,"elected ":4403,"is now ":4404," , a ":4405,"uses ":4406,"igned ":4407,"from his ":4408,"appar":4409,"space ":4410,"ugg":4411,"stories ":4412,"2014 ":4413,"struck ":4414,"moving ":4415,"incid":4416,"personal ":4417,"14":4418,"Il":4419,"Sup":4420,"bomb":4421,"cost ":4422,"thir":4423,"ed its ":4424,". Con":4425,"li ":4426,"deploy":4427,"deep ":4428,"appe":4429,"at the time ":4430,"edly ":4431,". Since ":4432,"records ":4433,"location ":4434,"directed by ":4435,"higher ":4436,"ipal ":4437,"ennsylvan":4438,"veh":4439,"Academ":4440,"36 ":4441,"Mos":4442,"Rachel ":4443,"Ter":4444,"Texas ":4445,"nation":4446,"se of ":4447,"inside ":4448,"ed . The ":4449,"on and ":4450,"ican ":4451,"plot ":4452,"2 ) ":4453,"manu":4454,"among the ":4455,"should be ":4456," = = = <unk> = = = \n":4457,"commission":4458,"Bow":4459,"kel":4460,"ty , ":4461,"ed out ":4462,"for \" ":4463,"e , \" ":4464,"Chris ":4465,"there are ":4466,"will be ":4467,"watch":4468,"difficul":4469,"Galvest":4470,"Ap":4471,"Peter ":4472,"Sovi":4473,"day":4474,"ket":4475,"ub ":4476,"chem":4477,"uck":4478,"years , ":4479,"award ":4480,"declin":4481,"countri":4482,"Live ":4483,"concert ":4484,"6th ":4485,"A. ":4486,"Civ":4487,"Ott":4488,"bon":4489,"cad":4490,"web":4491,"atory ":4492,"an inter":4493,"was \" ":4494,"expos":4495,". Another ":4496,"some of the ":4497,"adium ":4498,"do not ":4499,"something ":4500,"Africa ":4501,"ashington ":4502,"extrem":4503,"mph ( ":4504,"Virgin":4505,"sively ":4506,"Hun":4507,"flow":4508,"log":4509,"ans , ":4510,"repe":4511,"accompan":4512,"al @-@ ":4513,"leg ":4514,"oph":4515,"earch":4516,"objec":4517,". But ":4518,"ongside ":4519,"visit":4520,"Canada ":4521,"peaked ":4522,"eption = = \n":4523,"injur":4524,"standard ":4525," K":4526,"39 ":4527,"AA ":4528,"Jam":4529,"Sen":4530,"ta ":4531,"vot":4532,"wall":4533,"o and ":4534,"tice ":4535,"m , ":4536,"die ":4537,"trad":4538,"tically ":4539,"quali":4540,". That ":4541,"start ":4542,"ists ":4543,"damag":4544,"divided ":4545,"total of ":4546,"actually ":4547,"widely ":4548,"Christmas ":4549,"7th ":4550,"Bel":4551,"Jun":4552,"Pet":4553,"Rock ":4554,"Si":4555,"look ":4556,"nam ":4557,"vent":4558,"wall ":4559,"information ":4560,"arr":4561,"arity ":4562,"ami ":4563,"advis":4564,"conver":4565,"2000 ":4566,"story":4567,"2011 , ":4568,"served ":4569,"both the ":4570,"graph":4571,"status ":4572,"copies ":4573,"separate ":4574,"vehic":4575,"Awards ":4576,"Haw":4577,"SA":4578,"bs ":4579,"gent":4580,"sound":4581,"insul":4582,"size ":4583,"strateg":4584,"ed by <unk> ":4585,"2001 ":4586,"press ":4587,"ancient ":4588,"gods ":4589,"wind":4590,"described the ":4591,"peopl":4592,"antas":4593,"toward ":4594,"headquarters ":4595,"Polish ":4596,"decided ":4597,"drawn ":4598,"concluded ":4599,"California ":4600,"He":4601,"ois ":4602,"sli":4603,"a is ":4604,"ple":4605,"opin":4606,"specific ":4607,". Both ":4608,"torped":4609,"self @-@ ":4610,"ironcl":4611,"Republic ":4612,"Highway ":4613,"Major ":4614,"Cer":4615,"Washington ":4616,"ez ":4617,"mel":4618,"ply ":4619,"sav":4620,"today ":4621,"ret ":4622,"ing of the ":4623,"stand ":4624,"ask ":4625,"sim":4626,"chester ":4627,"consec":4628,"rainf":4629,") was ":4630,"Church":4631,"rick ":4632,"ance , ":4633,"Colon":4634,"resulting ":4635,"innes":4636,"issue ":4637,"Church of ":4638,"source ":4639,"Operation ":4640,"primarily ":4641,"athan ":4642,"last":4643,"mouth ":4644,"ed , and ":4645,"restor":4646,"on July ":4647,"agon":4648,"exhi":4649,"perial ":4650,". Her ":4651,"after a ":4652,"complex ":4653,"facil":4654,"placed ":4655,"runs ":4656,"mainly ":4657,"ergy ":4658,"China ":4659,"Series ":4660,"mention":4661,"casualties ":4662,"Young ":4663,"get":4664,"ty":4665,"want ":4666,"rely ":4667,"attrac":4668,"ural ":4669,"concent":4670,"ers of the ":4671,"culture ":4672,"makes ":4673,"effect ":4674,"demon":4675,"allowed ":4676,"designated ":4677,"extended ":4678,"Service ":4679,"length ":4680,"Bas":4681,"High ":4682,"My ":4683,"On":4684,"Pe":4685,"Tem":4686,"hou ":4687,"ible ":4688,"vir":4689,"youn":4690,"° ":4691,", while ":4692,"alongside ":4693,"one , ":4694,"il , ":4695,"embl":4696,"for <unk> ":4697,"sust":4698,"opport":4699,"it the ":4700,"were also ":4701,"recent ":4702,"pressure ":4703,"prac":4704,"build ":4705,"affected ":4706,"os Angel":4707,"49 ":4708,"here ":4709,"nis ":4710,"in and ":4711,"to take ":4712,"ittle ":4713,"acu":4714,"al of ":4715,"olution ":4716,"let ":4717,"sport":4718,"to the <unk> ":4719,"verse ":4720,"mium ":4721,"stream ":4722,"patter":4723,"document":4724,"prevent ":4725,"Big ":4726,"Chicago ":4727,"confirm":4728," <unk> <unk> ":4729,"Gam":4730,"P ":4731,"Str":4732,"aby ":4733,"hard ":4734,"sed the ":4735,"inch ":4736,", was ":4737,"unic":4738,"tially ":4739,"enant ":4740,"on their ":4741,"in order to ":4742,"@-@ time ":4743,"condom":4744,"liz":4745,"derson ":4746,": 00 ":4747,"2012 , ":4748,". Their ":4749,"maxim":4750,"Party ":4751,"transl":4752,"Film ":4753,"Vietnam ":4754,"incorpor":4755,"Ever":4756,"Pen":4757,"Port ":4758,"U ":4759,"canc":4760,"cathedral ":4761,"mental ":4762,"pass ":4763,"spl":4764,"vess":4765,"quality ":4766,"eath ":4767,"remar":4768,"tainment ":4769,". All ":4770,"increase ":4771,"group of ":4772,"stated that ":4773,"suffered ":4774,"towards the ":4775,"scienti":4776,"problems ":4777,"powerful ":4778,"Bro":4779,"Bob":4780,"Football ":4781,"Nations ":4782,"Wel":4783,"cruis":4784,"dary ":4785,"ham":4786,"pun":4787,"say ":4788,"things ":4789,"stay ":4790,"ating the ":4791,"itar":4792,"ashi":4793,"with her ":4794,"produce ":4795,"ations of ":4796,"passed ":4797,"purchas":4798,"stitution ":4799,"historical ":4800,"situation ":4801,"relatively ":4802,"Catholic ":4803,"Virginia ":4804,"Cri":4805,"cen":4806,"thers ":4807,"erset ":4808,"university ":4809,"ed their ":4810,"and its ":4811,"ing for ":4812,": the ":4813,"uty ":4814,"phoon ":4815,"encoun":4816,"regim":4817,"genus ":4818,"buildings ":4819,"got ":4820,"communic":4821,"threat":4822,"square ":4823,"Scotland ":4824,"environ":4825,"ultimately ":4826,"for the first time ":4827,"Cra":4828,"Fle":4829,"Lou":4830,"Lake ":4831,"Mat":4832,"istr":4833,"ma ":4834,"paid ":4835,"s ( ":4836,"of her ":4837,"enz":4838,"used in ":4839,"it , ":4840,"eav":4841,"this time ":4842,"remain ":4843,"ampion ":4844,"may have ":4845,"border ":4846,"University of ":4847,"audience ":4848,"invasion ":4849,"1 , the ":4850,"ault ":4851,"fect ":4852,"mort":4853,"<unk> by ":4854,"ports ":4855,"2008 , ":4856,"cred":4857,"god ":4858,"moved to ":4859,"access ":4860,"descrip":4861,"forced to ":4862,"eyonc":4863,"takes ":4864,"game , ":4865,"failed to ":4866,"circul":4867,"portray":4868,"murder ":4869,"ittee ":4870,"Italian ":4871,"Br":4872,"Hous":4873,"Kh":4874,"Nix":4875,"Tra":4876,"journ":4877,"nown ":4878,"woo":4879,"als and ":4880,"on October ":4881,"oul":4882,"twenty ":4883,"are the ":4884,"; and ":4885,"@,@ <unk> ":4886,"symb":4887,"area of ":4888,"typically ":4889,"Queen ":4890,"travel":4891,"nuclear ":4892,"- ":4893,"Nic":4894,"RA ":4895,"Wee":4896,"cell ":4897,"ipl":4898,"tar ":4899,"thy ":4900,"thous":4901,"inch":4902,"anas":4903,"alleg":4904,"that a ":4905,". The song ":4906,"ricul":4907,"tives ":4908,"excav":4909,"combat ":4910,"village ":4911,"valu":4912,"member of the ":4913,"Camp":4914,"Del":4915,"Gra":4916,"May":4917,"gi":4918,"rhy":4919,"uk":4920,"s ' ":4921,". <unk> <unk> ":4922,"( 199":4923,"192":4924,"19th century ":4925,"image ":4926," = = History ":4927,"had not ":4928,"poet":4929,"serious ":4930,"2016 ":4931,"city 's ":4932,"found in ":4933,"rison ":4934,"India ":4935,"successfully ":4936,"figure ":4937,"hours ":4938,"maximum ":4939,"Dem":4940,"Wat":4941,"ce":4942,"cric":4943,"tom":4944,"un ":4945,"instr":4946,"alty ":4947,"tian ":4948,"amily ":4949,"sip":4950,"@-@ year ":4951,"pli":4952,"evacu":4953,"ted a ":4954,"ingu":4955,"5 – ":4956,"ugby ":4957,". However , the ":4958,"bot":4959,"7 @.@ ":4960,"9 @.@ ":4961,"eeds ":4962,"ister ":4963,"eball ":4964,"broken ":4965,"took place ":4966,"inner ":4967,"leshi":4968,"husband ":4969,"Taylor ":4970,"WW":4971,"keep ":4972,"lis":4973,"led by ":4974,"ón ":4975,"tified ":4976,"entran":4977,"exclu":4978,"were not ":4979,"attribu":4980,"deriv":4981,"2013 , ":4982,"feel":4983,"phot":4984,"anna ":4985,"coast":4986,"made a ":4987,"result ":4988,"neigh":4989,"changes ":4990,"Center ":4991,"earliest ":4992,"sixth ":4993,"relief ":4994,"manufac":4995,"Tenn":4996,"cause ":4997,"founded ":4998,"rating ":4999,"ed for the ":5000,"to their ":5001,"@-@ day ":5002,"that is ":5003,"prop":5004,"recover":5005,") , the ":5006,"guitar ":5007,"county ":5008,"iverpool ":5009,"fication ":5010,"industry ":5011," = = <unk> = = \n":5012,"financial ":5013,"necessary ":5014,"estival ":5015,"0th ":5016,"Leg":5017,"O '":5018,"fans ":5019,"mass ":5020,"wed":5021,"erbe":5022,"int ":5023,"emphas":5024,"conven":5025,"fort ":5026,"shoo":5027,"boat ":5028,"mile ":5029,"practi":5030,"officially ":5031,"metal ":5032,"echan":5033,"volum":5034,"Federer ":5035,"federal ":5036,"65 ":5037,"95 ":5038,"Cr":5039,"Cal":5040,"Dan":5041,"How":5042,"St ":5043,"foun":5044,"fill":5045,"found":5046,"hly ":5047,"ier ":5048,"lam":5049,"phi":5050,"wa":5051,"on June ":5052,"to \" ":5053,"tion and ":5054,"adver":5055,"( the ":5056," = = B":5057,"which the ":5058,"dissip":5059,"rule ":5060,"meet ":5061,"Marine ":5062,"specim":5063,"films ":5064,"remains ":5065,"background ":5066,"shortly ":5067,"oppon":5068," During the ":5069," <unk> , ":5070,"Tran":5071,"ha ":5072,"<unk> ' ":5073,"onym":5074,"sipp":5075,"as a \" ":5076,"Alli":5077,"could not ":5078,"defensive ":5079,"piano ":5080,"Direc":5081,"prominent ":5082,"sissipp":5083,"10 , ":5084,"Law":5085,"coug":5086,"dru":5087,"fly ":5088,", they ":5089,"stag":5090,"ilian ":5091,"assign":5092,"older ":5093,"@-@ p":5094,"igence ":5095,"debu":5096,"true ":5097," = = Rec":5098,"perman":5099,", and a ":5100,"attended ":5101,"ogad":5102,"aware ":5103,"edg":5104,"center ":5105,"north":5106,"northwest ":5107,"Spec":5108,"Spain ":5109,"currently ":5110,"flooding ":5111,"enjoy":5112,"schedul":5113,"Publ":5114,"Smi":5115,"hood ":5116,"ville ":5117,"rein":5118,"ate , ":5119,"havi":5120,"rapp":5121,"overs ":5122,"centre ":5123,"offer":5124,"ell , ":5125,"in 190":5126,"\" , which ":5127,"sign ":5128,"them to ":5129,"directed ":5130,"armed ":5131,"strial ":5132,"ipment ":5133,"laid ":5134,"sequence ":5135,"deliver":5136,"attempted to ":5137,"prison":5138,"Association ":5139,"reign ":5140,"revol":5141,"\" ) ":5142,"@-@ up ":5143,"for her ":5144,"it 's ":5145,"out of the ":5146,"teams ":5147,"cultural ":5148,"featured ":5149,"Histor":5150,"Roseb":5151,"domes":5152,"potential ":5153,"Bea":5154,"eigh":5155,"pay ":5156,"thick ":5157,"recomm":5158,"reaction ":5159,"ing their ":5160,"es from ":5161,"ic , ":5162,"in the first ":5163,"akap":5164,"version of the ":5165,"looking ":5166,"Stevens ":5167,"Soviet ":5168,"Welsh ":5169,"+ ":5170,"43 ":5171,"AS":5172,"bat":5173,"mechan":5174,"pal":5175,"west":5176,", or ":5177,"ates , ":5178,"elim":5179,"'s \" ":5180,"2009 , ":5181,"ests ":5182,"blue ":5183,"blood ":5184,"Ocean ":5185,"down the ":5186,"broke ":5187,"high @-@ ":5188,"voic":5189,"friends ":5190,"example , ":5191,"Captain ":5192,"ynast":5193,"Earth ":5194,"64 ":5195,"600 ":5196,"78 ":5197,"Simp":5198,"kind ":5199,"says ":5200,"er <unk> ":5201,"urther ":5202,"earned ":5203,"estin":5204,"idly ":5205,"supply ":5206,"there was ":5207,"intensi":5208,"Black":5209,"Manchester ":5210,"Mississipp":5211,". By the ":5212,"civil ":5213,"recogniz":5214,"ennsylvania ":5215,"rainfall ":5216,"practice ":5217,"ogadish":5218,"Sun":5219,"call ":5220,"dy":5221,"nin":5222,"reserv":5223,"olf ":5224,". The film ":5225,"rative ":5226,"earth":5227,"tionary ":5228,"ourney ":5229,"landing ":5230,"colum":5231,"basis ":5232,"help":5233,"Australians ":5234,"eyerbe":5235,"intended ":5236,"variety of ":5237,"install":5238,"explor":5239,"Recor":5240,"mountain ":5241,"Russian ":5242,"job ":5243,"attention ":5244," = = History = = \n":5245,"8th ":5246,"Brad":5247,"Hot ":5248,"ike ":5249,"lack":5250,"rical ":5251,"unknown ":5252,"as part of ":5253,"olden ":5254,"<unk> , but ":5255,"ings of ":5256,"and the <unk> ":5257,"puter ":5258,"Alice ":5259,". This was ":5260,"German":5261,"received a ":5262,"legisl":5263,", which was ":5264,"possibly ":5265,"street ":5266,"market ":5267,"published in ":5268,"leaving ":5269,"retary ":5270,"consecutive ":5271,"Arab":5272,"Bu":5273,"bed ":5274,"cle ":5275,"etic ":5276,"gri":5277,"mitted ":5278,"nal ":5279,"vey ":5280,"thin":5281,", including ":5282,"in ( ":5283,"as he ":5284,"his own ":5285,"premi":5286,"ed to a ":5287,"forms ":5288,"based on the ":5289,"ologist ":5290,"health ":5291,"tribu":5292,"result of ":5293,"bert ":5294,"some of ":5295,"criticiz":5296,"type ":5297,"residents ":5298,"rapidly ":5299,"Austri":5300,"Illin":5301,"Fleet ":5302,"HM":5303,"Pat":5304,"eut":5305,"gen ":5306,"arm ":5307,"<unk> is ":5308,"in the early ":5309,". Ad":5310,"6 – ":5311,"scale ":5312,"encour":5313,"mark ":5314,"cerem":5315,"battleshi":5316,"ysis ":5317,"Edward ":5318,"conditions ":5319,"activities ":5320,"93 ":5321,"Er":5322,"Mexico ":5323,"Post ":5324,"bound ":5325,"nature ":5326,"sac":5327,"reason ":5328,"rebel":5329,"and other ":5330,"on its ":5331,"in her ":5332,"owler ":5333,"condom ":5334,"ers ( ":5335,"ers ' ":5336,"ated in ":5337,"ture of ":5338,"Arm":5339,"Paris ":5340,"Engine":5341,"transport ":5342,"burn ":5343,"Blue ":5344,"except ":5345,"management ":5346,"contrast ":5347,"equipment ":5348,"water":5349,"ship , ":5350,"km / h ) ":5351,"Haif":5352,"territory ":5353,"Villa ":5354,"susp":5355,"House ":5356,"We ":5357,"ahead ":5358,"ming ":5359,"tu":5360,"ed her ":5361,"<unk> that ":5362,"sey ":5363,"time of ":5364,"ackground ":5365,"used for ":5366,"collap":5367,"distance ":5368,"theme ":5369,"contains ":5370,"Sea ":5371,"Richmond ":5372,"tax":5373,"physical ":5374,"Galveston ":5375,"Ottoman ":5376,"But":5377,"Yue ":5378,"core ":5379,"farm":5380,"sought ":5381,"retain":5382,"a large ":5383,"to do ":5384,"es for ":5385,"eck":5386,"oss":5387,"2002 ":5388,"7 – ":5389,"designed ":5390,"edge ":5391,"ization ":5392,"syst":5393,"athens ":5394,"officials ":5395,". They were ":5396,"victor":5397,"gave the ":5398,"letter ":5399,"marriage ":5400,"strength ":5401,"floor ":5402,"eanwhil":5403,"Portugu":5404,"Churchill ":5405,"Mary ":5406,"Sk":5407,"Tour ":5408,"ag ":5409,"dark ":5410,"gn":5411,"gest ":5412,"ny ":5413,"push":5414,"yel":5415,"the following ":5416,"unte":5417,"was built ":5418,"chos":5419,"it to ":5420,". As the ":5421,"akes ":5422,"annel ":5423,"course ":5424,"range of ":5425,"figures ":5426,"Southern ":5427,"'re ":5428,"Kar":5429,"ail ":5430,"bury ":5431,"fer ":5432,"fought ":5433,", where ":5434,"resc":5435,"to play ":5436,"academ":5437,"simp":5438,"eph ":5439,"interpre":5440,"in 194":5441,"grew ":5442,"athus ":5443,"load":5444,"form of ":5445,"% of the ":5446,"author ":5447,"authority ":5448,". There are ":5449,"Prince ":5450,"becomes ":5451,"connected ":5452,"Government ":5453,"education ":5454,"Group ":5455,"enemy ":5456,"architec":5457,"Empire ":5458,"Civil ":5459,"simply ":5460,"61 ":5461,"Beyonc":5462,"Eastern ":5463,"Home ":5464,"Michigan ":5465,"citi":5466,"clim":5467,"greg":5468,"led the ":5469,"ople ":5470,"ph ":5471,"ised ":5472,"ete ":5473,"parents ":5474,"ody ":5475,"door ":5476,"accid":5477,"North America ":5478,"quarter":5479,"stitute ":5480,"attacks ":5481,"hodes":5482,"All @-@ ":5483,"Olympic ":5484,"akapo ":5485,"11":5486,"9 , the ":5487,"Minnes":5488,"brown ":5489,"hur":5490,"km":5491,"kin":5492,"lam ":5493,"mol":5494,"wave ":5495,"yn ":5496,"<unk> as ":5497,"stood ":5498,"stop ":5499,"eman ":5500,"used the ":5501,"s , a ":5502,"perform ":5503,"timony ":5504,"8 @.@ ":5505,"prise ":5506,"aster":5507,"efly ":5508,"shows ":5509,"allowing ":5510,"royal ":5511,"featuring ":5512,"newly ":5513,"Assembly ":5514,"amount of ":5515,"Democ":5516,"eutenant ":5517,"chosen ":5518,"Games ":5519,"No ":5520,"Rhodes":5521,"astr":5522,"bar ":5523,"dang":5524,"lec":5525,"mm ( ":5526,"xenon ":5527,"rear ":5528,"of The ":5529,"of this ":5530,"on May ":5531,"behavi":5532,"which he ":5533,"1 @,@ 000 ":5534,"one @-@ ":5535,"s and <unk> ":5536,"i 's ":5537,"dismis":5538,"idge ":5539,"means ":5540,"mission":5541,"returning ":5542,"eye ":5543,"giving ":5544,"drum":5545,"reference ":5546,"gradu":5547,"piece ":5548," When ":5549,"effective ":5550,"Rock":5551,"Sur":5552,"Yank":5553,"foot":5554,"kg ":5555,"kan ":5556,"les , ":5557,"rar":5558,"tol":5559,"your ":5560,"intin ":5561,"ties , ":5562,"as , ":5563,"roman":5564,"oud ":5565,"ouse":5566,"was <unk> ":5567,"that she ":5568,"depar":5569,"has also ":5570,"Independ":5571,"phil":5572,"movie ":5573,"winds of ":5574,"like the ":5575,"Mountain ":5576,"books ":5577,"screen ":5578," Although ":5579,"Carolina ":5580,"multiple ":5581,"Israel ":5582,"Varanas":5583,"Portuguese ":5584,"Pit":5585,"Zhou ":5586,"care ":5587,"dred ":5588,"hir":5589,"however ":5590,"nh ":5591,"wing ":5592,"wen ":5593,"und":5594,"esbit":5595,"essions ":5596,"where":5597,"usual ":5598,"lem ":5599,"ers . \n":5600,"try":5601,"shir":5602,"ations and ":5603,"otel ":5604,"presence ":5605,"subject ":5606,"ype ":5607,"Walpol":5608,"historian ":5609,"Corps ":5610,"vocals ":5611,"hands ":5612,"Haiti":5613,"Hawai":5614,"34 ":5615,"Doc":5616,"Little ":5617,"Middle ":5618,"pra":5619,"rich ":5620,"was born ":5621,"ents , ":5622,"forest ":5623,"promp":5624,"etts ":5625,"ture , ":5626,"their own ":5627,". Several ":5628,"pus ":5629,"plays ":5630,"knowle":5631,"intersec":5632,"All":5633,"neu":5634,"as well as the ":5635,"student ":5636," There ":5637,"nominated ":5638,"daen":5639,"economic ":5640,"tournament ":5641,"kelstein ":5642,"reinforc":5643,"ogadishu ":5644,"53 ":5645,"Am":5646,"Avenue ":5647,"Clar":5648,"El ":5649,"Hav":5650,"Ital":5651,"Jim ":5652,"Lu":5653,"Naz":5654,"U @-@ ":5655,"Ven":5656,"nit":5657,"needed ":5658,"ods ":5659,"search ":5660,"instruc":5661,"itation ":5662,"ecause ":5663,"agan ":5664,"ump ":5665,"phere ":5666,"decor":5667,"upit":5668,"there is ":5669,"singer ":5670,"Juli":5671,"% of ":5672,"passing ":5673,"deman":5674,"Boston ":5675,"birth ":5676,"cross ":5677,"threat ":5678,"suffic":5679,"settlement ":5680,"meeting ":5681,"AF ":5682,"Jupit":5683,"Rel":5684,"Sum":5685,"acted ":5686,"ado ":5687,"diam":5688,"it \" ":5689,"were the ":5690,"low @-@ ":5691,". In a ":5692," The first ":5693,"minim":5694,"odon ":5695,"Arch":5696,"defence ":5697," Follow":5698,"increasingly ":5699,"left the ":5700,"don 't ":5701,"half of the ":5702,"friend":5703,"occurred ":5704,"organization ":5705,"host":5706,"religion ":5707,"becoming ":5708,"impact ":5709,"Horse ":5710,"straight ":5711,"sexual ":5712,"UK ":5713,"medical ":5714,"debuted ":5715," St":5716,"0s and ":5717,"Bol":5718,"DV":5719,"Town ":5720,"na ":5721,"pas":5722,"sam":5723,"test ":5724,"ys ":5725,"to its ":5726,"iron ":5727,"that <unk> ":5728,"church":5729,"enter ":5730,"impres":5731,"ity of ":5732,"uck ":5733,"are not ":5734,"words ":5735,"speci":5736,"producer ":5737,"helped ":5738,"wealth ":5739,"if the ":5740,"frag":5741,"idian ":5742,"Alex":5743,"& B":5744,"BC":5745,"BA ":5746,"Dre":5747,"cav":5748,"dates ":5749,"ls ":5750,"rush":5751,"sman ":5752,"xford ":5753,"zy ":5754,"ored ":5755,"in May ":5756,"ita ":5757,"acts ":5758,"asc":5759,"foreign ":5760,"comedy ":5761,"oured ":5762,"parall":5763,"critic ":5764,"guest ":5765,"battali":5766,"defense ":5767,"Produc":5768,"scoring ":5769,"freeway ":5770,"praised the ":5771,"conducted ":5772,"independent ":5773,"keep":5774,"Jackson ":5775,"conflict ":5776,"brigade ":5777,"3 , the ":5778,"Are":5779,"Lan":5780,"Lady ":5781,"Saint ":5782,"cm ( ":5783,"edition ":5784,"mob":5785,"oti":5786,"thr":5787,"ed him ":5788,"<unk> from ":5789,"onald ":5790,"roles ":5791,"emperor ":5792,") = \n":5793,"death":5794,"ocks ":5795,"avoid ":5796,": <unk> ":5797,". <unk> was ":5798,"number":5799,"basket":5800,"capture ":5801,"height ":5802,"visions ":5803,"request ":5804,"believe ":5805,"less than ":5806,"seconds ":5807,"touchdown ":5808,"chief ":5809,"challeng":5810,"cadmium ":5811," G":5812,"15 , ":5813,"5 , the ":5814,"Hear":5815,"bom":5816,"cli":5817,"mm ":5818,"ner":5819,"tation ":5820,"and is ":5821,"a number of ":5822,"in H":5823,"theastern ":5824,"twice ":5825,"Chron":5826,"work , ":5827,"assass":5828,"begins ":5829,"submar":5830,"Argent":5831,"song \" ":5832,"entirely ":5833,"match":5834,"matter ":5835,"tried to ":5836,"Const":5837,"setting ":5838,"herself ":5839,"weather ":5840,"holds ":5841,"script ":5842,"growing ":5843,"subsequent ":5844,"protein ":5845,"numbers ":5846,"entrance ":5847,"manufactur":5848,"neutr":5849,"BBC ":5850,"Chi":5851,"Sol":5852,"Sir ":5853,"eder":5854,"loy":5855,"mess":5856,"tav":5857,"uch ":5858,"as they ":5859,"atop":5860,"in the city ":5861,"spread ":5862,". If ":5863,"ated by the ":5864,"shire ":5865,"ogue ":5866,"box ":5867,". \" He ":5868,"ting to ":5869,"crip":5870,"Mary":5871," As ":5872,"Common":5873,"writers ":5874,"helm ":5875,"winter ":5876,"trib":5877,"popularity ":5878,"music video ":5879,"collabor":5880,"agreement ":5881,"letters ":5882,"Somerset ":5883,"accepted ":5884,"seasons ":5885,"Gulf ":5886,"Manila ":5887,"soundtrack ":5888,"wooden ":5889," = = Background ":5890,"domestic ":5891,"daenathus ":5892,"Liverpool ":5893,"cu":5894,"oil ":5895,"sn":5896,"wear":5897,"y \" ":5898,"in early ":5899,"ator":5900,"adel":5901,"world":5902,"8 – ":5903,"land , ":5904,"shipp":5905,"9 – ":5906,". \" In ":5907," Acc":5908,"regul":5909,"tom ":5910,"no longer ":5911,"rigin":5912,"opened ":5913,"performed ":5914,"significantly ":5915,"noted that ":5916,"Scottish ":5917,"measur":5918,"proteins ":5919,"Field ":5920,"55 ":5921,"96 ":5922,"Call ":5923,"Lar":5924,"Oma":5925,"Pi":5926,"mid":5927,"nation ":5928,"ras":5929,"table ":5930,"town":5931,"ino ":5932,"alone ":5933,"of an ":5934,"tile ":5935,"to become ":5936,"ster":5937,"chose ":5938,"e , and the ":5939,") in ":5940," = = \n":5941,"poet ":5942,"2007 , ":5943,", the <unk> ":5944,"two years ":5945,"desc":5946,"utch ":5947,"flying ":5948,"trial ":5949,"appears ":5950,"senior ":5951,"sports ":5952,"science ":5953,"groups ":5954,"Johnson ":5955,"inches ( ":5956,"onymous ":5957,"Mississippi ":5958,"adelphi":5959,"Def":5960,"ek":5961,"kept ":5962,"pop ":5963,"uel ":5964,"union ":5965,". V":5966,". ( ":5967,"unk ":5968,"revi":5969,"onto ":5970,"on November ":5971,"assigned ":5972,"esh ":5973,"@-@ inch ":5974,"plant ":5975,"diff ":5976,"projects ":5977,"seas ":5978,"which is ":5979,"boats ":5980,"miles ":5981,"commonly ":5982,"ishing ":5983,"over a ":5984,"follow ":5985,"Cardiff ":5986,"may have been ":5987,"big ":5988,"wards , ":5989,"Frank ":5990,"bridg":5991,"period of ":5992,"temple ":5993,"listed ":5994,"travel ":5995,"planet ":5996,"outside the ":5997,"Lord ":5998,"PlayStation ":5999,"crowd ":6000,"aiss":6001,"demonstr":6002,"sustained ":6003,"Nixon ":6004,"Hum":6005,"Med":6006,"Ram":6007,"paper ":6008,"rin":6009,"us and ":6010,"ander ":6011,"in September ":6012,"isol":6013,"was first ":6014," , <unk> ":6015,"haps ":6016,"bear":6017,"beat ":6018,") – ":6019,"expe":6020,"predic":6021,"ated in the ":6022,"club":6023,". Though ":6024,"mind ":6025,"elled ":6026,"counter":6027,"names ":6028,"officers ":6029,"other":6030,"distingu":6031,"Club ":6032,"involved ":6033,"clear":6034,"married ":6035,"heard ":6036,"Court ":6037,"drive ":6038,"frequently ":6039,"advertis":6040,"Hom":6041,"Team ":6042,"devel":6043,"eplay ":6044,"fy ":6045,"fast ":6046,"jun":6047,"se , ":6048,", D":6049,"reach ":6050,"of them ":6051,"itable ":6052,"The <unk> ":6053,"wides":6054,"for Best ":6055,"ratic ":6056,"ted to the ":6057,"had the ":6058,"2 and ":6059,"content ":6060,"after his ":6061,"remn":6062,"severe ":6063,"to be a ":6064,"capable ":6065,"line , ":6066,"— the ":6067,"borough ":6068,"long @-@ ":6069,"increasing ":6070,"reached the ":6071,"Perón ":6072,"briefly ":6073,". When the ":6074,"similar to ":6075,"animal ":6076,"saying ":6077,"surrounding ":6078,"families ":6079,"Busch ":6080,"Allied ":6081,"develop ":6082,"00 , ":6083,"Hall ":6084,"Sam":6085,"Tess":6086,"bin":6087,"bad":6088,"bid ":6089,"foot ":6090,"gain ":6091,"ners ":6092,"net ":6093,"q ":6094,"ween ":6095,"altar ":6096,"ons , ":6097,"to @-@ ":6098,"stead ":6099,"element":6100,"\" in ":6101,"itting ":6102,"an in":6103,"19 , ":6104,"ully ":6105,"etween ":6106,"improv":6107,"ts were ":6108,", and was ":6109,"recently ":6110,"der of the ":6111,"years of ":6112,"crew":6113,"would not ":6114,"specul":6115,"interview":6116,"doing ":6117,"four @-@ ":6118,"risk ":6119,"continues ":6120,"brary ":6121,"historic ":6122,"extensive ":6123,"joined ":6124,"joined the ":6125,"agreed to ":6126,"painting ":6127,"doub":6128,"unique ":6129,"secondary ":6130,"minutes ":6131,"program":6132,"acquir":6133,"Olivier ":6134,"advantage ":6135,"slowly ":6136,"year @-@ old ":6137,"Church of Scientology ":6138,"molec":6139,"85 ":6140,"dar":6141,"jed":6142,"yond ":6143,"throw":6144,". <unk> and ":6145,"urg":6146,"agricul":6147,"beyond ":6148,"conf":6149,"budg":6150,"pread ":6151,"ings and ":6152,"2015 , ":6153,"es , but ":6154,"18 , ":6155,"I @-@ ":6156,"ty @-@ ":6157,"regarded ":6158,"structures ":6159,"monument ":6160,"Alab":6161,"where they ":6162,"named the ":6163,"appeared in ":6164,"famous ":6165,"result , ":6166,"17 , ":6167,"collected ":6168,"Forest ":6169,"fiction ":6170,"half @-@ ":6171,"dram":6172,"destroyed ":6173,"landfall ":6174,"Final ":6175,"execu":6176,"kilometres ( ":6177,"Super ":6178,"website ":6179,"jedk":6180,"30 , ":6181,"54 ":6182,"Bran":6183,"Hug":6184,"Mill":6185,"iel ":6186,"mong ":6187,"pul":6188,"will":6189,"retre":6190,"and then ":6191,"in 17":6192,"room":6193,"step":6194,"atmos":6195,"ambi":6196,"hair":6197,"with its ":6198,"eter":6199,"ded the ":6200,"attach":6201,"who were ":6202,"assault ":6203,"specific":6204,"charge ":6205,"one of the most ":6206,"notable ":6207,"squadron ":6208,"injury ":6209,"hundred ":6210,"individuals ":6211,"negoti":6212,"entered the ":6213,"executive ":6214,"castle ":6215,"Open ":6216,"fruit ":6217,"newspaper ":6218,"benef":6219,"Rosebery ":6220,"basketball ":6221,"! \" ":6222,"11 , ":6223,"46 ":6224,"H ":6225,"Swe":6226,"bits ":6227,"cell":6228,"kakapo ":6229,"rare ":6230,"tex":6231,". Mar":6232,"<unk> a ":6233,"<unk> or ":6234,"stay":6235,"illi":6236,"died in ":6237,"championship ":6238,"; this ":6239,"<unk> <unk> ) ":6240,"Under":6241,"groun":6242,"surg":6243,"monit":6244,"Arth":6245,"album 's ":6246,"said , \" ":6247,"passeng":6248,". Each ":6249,"therefore ":6250,"sent to ":6251,"personnel ":6252,"ideas ":6253,"camp ":6254,"Philadelphi":6255,"Theat":6256,"oldest ":6257,"elimin":6258,"On ":6259,"Rang":6260,"ather ":6261,"cust":6262,"kish ":6263,"ning the ":6264,"e \" ":6265,"<unk> \n":6266,"and @-@ ":6267,"es ' ":6268,"he is ":6269,"ison ":6270,"ented ":6271,"ley , ":6272,"raid ":6273,"promot":6274,"recall":6275,"fix":6276,"dish ":6277,"es , including ":6278,"rub":6279,"roughly ":6280,"essor ":6281,"faced ":6282,"series , ":6283,"state of ":6284,"much of the ":6285,"mounted ":6286,"tail ":6287,"Battalion , ":6288,"Valley ":6289,"Joseph ":6290,"adopted ":6291,"analysis ":6292,"supplies ":6293,"billion ":6294,"Illinois ":6295,"42 ":6296,"Ath":6297,"Don ":6298,"I , ":6299,"Kn":6300,"gain":6301,"kill ":6302,"og ":6303,"the next ":6304,"ans and ":6305,"arch ":6306,"<unk> are ":6307,"isc":6308,"@-@ like ":6309,"adj":6310,"agent ":6311,"compris":6312,"abil":6313,"ation . \n":6314,"to the north ":6315,"display ":6316,"ackn":6317,"crimin":6318,"roughout ":6319,"peace ":6320," An":6321,"Americans ":6322,"begin ":6323,"southeast ":6324,"intended to ":6325,"Lieutenant ":6326,"sister ":6327,"tropical depression ":6328,"possibility ":6329,"politic":6330,"refused to ":6331,"gradually ":6332,"Imperial ":6333,"rights ":6334,"model ":6335,"society ":6336,"Mosley ":6337,"bottom ":6338," = = Reception = = \n":6339,"westward ":6340,"25 , ":6341,"44 ":6342,"4 , the ":6343,"800 ":6344,"Cast":6345,"Doug":6346,"Tw":6347,"Tintin ":6348,"s was ":6349,"n , ":6350,"in January ":6351,"in late ":6352,"was an ":6353,"ess and ":6354,"eval ":6355,"impl":6356,"strugg":6357,"<unk> <unk> . \n":6358,"crete ":6359,"egg":6360,"color ":6361,"write ":6362,"team":6363,"matches ":6364,"Conference ":6365,"solo ":6366,"because the ":6367,"Greek ":6368,"Video ":6369,"studies ":6370,"System ":6371," With ":6372,"occasion":6373,"unction ":6374,"Shiv":6375,"North Korean ":6376,"poetry ":6377,"philos":6378,"Constant":6379,"widespread ":6380,"jedkare ":6381,"56 ":6382,"Hal":6383,"Land ":6384,"Los Angel":6385,"ML ":6386,"Net":6387,"Ob":6388,"bal":6389,"bound":6390,"ks , ":6391,"ro ":6392,"energy ":6393,"in October ":6394,"in 16":6395,"ickn":6396,"that it was ":6397,"begun ":6398,"connec":6399,"ovic ":6400,"seat ":6401,"s of a ":6402,"feel ":6403,"finds ":6404,"suppos":6405,"lywood ":6406,"request":6407,"to <unk> the ":6408,"neither ":6409,"Blu":6410,"horse ":6411,"restaur":6412,"announced that ":6413,"Que":6414,"consisted of ":6415,"daily ":6416,"Vietnam":6417,"Victoria ":6418,"SAF":6419,"Records ":6420,"athens SAF":6421,"Hospit":6422,"Lab":6423,"ble":6424,"iew":6425,"oke ":6426,"tings ":6427,"vision ":6428,"thu":6429,"restric":6430,"in March ":6431,"ited to ":6432,"rive ":6433,"ples ":6434,"hav":6435,"evol":6436,"tions and ":6437,"apol":6438,"Stan":6439,"ough":6440,"versi":6441,"finish ":6442,"renam":6443,"Thunder":6444,"like a ":6445,"College ":6446,"1970 ":6447,"berg ":6448,"United States , ":6449,"breeding ":6450,"deliv":6451,"protect ":6452,"stret":6453,"closed ":6454,"scenes ":6455,"volunte":6456,"negative ":6457,"above the ":6458," After the ":6459,"Rih":6460,"Egyptian ":6461,"Office ":6462,"aspects ":6463,". Following the ":6464,"property ":6465,"Academy ":6466,"plewhite ":6467,"torpedo ":6468,"Varanasi ":6469,"aissance ":6470,"athens SAFE ":6471,"14 , ":6472,"Down ":6473,"Kur":6474,"Native ":6475,"Oxford ":6476,"slow ":6477,"selling ":6478,"text ":6479,"tank ":6480,"ture":6481,"anth":6482,"in June ":6483,"in November ":6484,"styl":6485,"\" I ":6486,"at @-@ ":6487,". The following ":6488,"in the area ":6489,"degre":6490,"seg":6491,"ed the song ":6492,"Stone ":6493,"timore ":6494,"Champion":6495,"this period ":6496,". \" A":6497,") , which ":6498,"during a ":6499,"college ":6500,"save ":6501,"1995 ":6502,"museum ":6503,"film 's ":6504,"forced ":6505,"population of ":6506,"officer ":6507,"draft ":6508,"resulted ":6509,"requi":6510,"tower ":6511,"killing ":6512,"stitut":6513,"District ":6514,"World War II ":6515,"focus ":6516,"semi @-@ ":6517,"lyrics ":6518,"I 'm ":6519,"ynasty ":6520,"budget ":6521,"6 , the ":6522,"Gord":6523,"Long ":6524,"Meyerbe":6525,"dress ":6526,"eful ":6527,"house":6528,"las ":6529,"lic":6530,"sex ":6531,"the \" ":6532,"of R":6533,"owned ":6534,"@-@ class ":6535,"ads ":6536,"adding ":6537,"20th century ":6538,"ts ( ":6539,"terms ":6540,"recru":6541,"all @-@ ":6542,"on the Billboard ":6543,"at the <unk> ":6544,"presents ":6545,"rence ":6546,"serving ":6547,"Cardin":6548,"many of the ":6549,", but the ":6550,"Colleg":6551,"southwest ":6552,"grav":6553,"protest":6554,". Ev":6555,"disturb":6556,"summ":6557,"heads ":6558,"return to ":6559,"Mount ":6560,"Dylan 's ":6561,"in Love ":6562,"strength":6563,". Addi":6564,"0 , and ":6565,"62 ":6566,"8 , the ":6567,"Dutch ":6568,"Meg":6569,"Mexic":6570,"Pennsylvania ":6571,"Song":6572,"Wood":6573,"bought ":6574,"enge ":6575,"a . The ":6576,"to an ":6577,"that year ":6578,"ustice ":6579,"computer ":6580,"ter @-@ ":6581,"out the ":6582,"milli":6583,"finals ":6584,"followed by ":6585,"side of ":6586,"athlet":6587,"approv":6588,"as \" a ":6589,"attempts to ":6590,"establish ":6591,"tropical cyclone ":6592,"episode , ":6593,"grand":6594,"existing ":6595,"Chap":6596,"combined ":6597,"Miami ":6598,"urban ":6599,"post @-@ ":6600,"normal ":6601,"girl ":6602,"13 , ":6603,"TC ":6604,"ae ":6605,"bad ":6606,"pap":6607,"sell ":6608,"ors , ":6609,"rejected ":6610,"in London ":6611,"ador ":6612,"that were ":6613,"constitu":6614,"ers . The ":6615,"twel":6616,"turning ":6617,"disease ":6618,"awards ":6619,") , a ":6620,"modi":6621,"esses ":6622,"eller ":6623,"au ":6624,"starts ":6625,"release of ":6626,"evelopment ":6627,"Australia , ":6628,"underground ":6629,"passes ":6630,"US $ ":6631,"protected ":6632,"criticism ":6633,"closely ":6634,"problem ":6635,"Tropical Storm ":6636,"Entertainment ":6637,"symbol":6638," It ":6639,"81 ":6640,"Gir":6641,"bour":6642,"dance ":6643,"iel":6644,"tap":6645,"indi":6646,", to ":6647,", <unk> , ":6648,", she ":6649,"artic":6650,"resist":6651,"in The ":6652,"as part of the ":6653,"\" to ":6654,"\" . He ":6655,"ecting ":6656,"was made ":6657,"that his ":6658,"that had ":6659,"consol":6660,"ation was ":6661,"ewis ":6662,"park ":6663,"share ":6664,"shore ":6665,"i and ":6666,"es , which ":6667,"creating ":6668,". Sim":6669,"model":6670,"when they ":6671,"included the ":6672,"temporary ":6673,"Admir":6674,"occur ":6675,"involvement ":6676,"convinc":6677,"DuMon":6678," While ":6679,"Cambodi":6680,"expressed ":6681,"ansas ":6682,"Colonel ":6683,"pattern ":6684,"cricket ":6685,"DVD ":6686,"Commonwealth ":6687,"ERA ":6688,"Lis":6689,"Prem":6690,"Tro":6691,"nur":6692,"r ":6693,"inhabit":6694,"of K":6695,"a M":6696,"in D":6697,"assum":6698,"ridge ":6699,"ade , ":6700,"being the ":6701,"e , he ":6702,"theory ":6703,"; it ":6704,"contain ":6705," <unk> ( ":6706," At ":6707,"through a ":6708,"armor ":6709,"carry ":6710,"visit ":6711,"operated ":6712,"organ ":6713,"describes ":6714,"called \" ":6715,"venu":6716,"Board ":6717,". Although the ":6718,"vocal ":6719,"proposed ":6720,"captured ":6721,". With the ":6722,"colonial ":6723,"practic":6724,"sportation ":6725,"51 ":6726,"94 ":6727,"Jon":6728,"Tel":6729,"Tru":6730,"Wi":6731,"dden ":6732,"nor ":6733,"oes ":6734,"inscrip":6735,"alent ":6736,"of F":6737,"on her ":6738,"ing from ":6739,"ing her ":6740,"outer ":6741,"element ":6742,"h , ":6743,"conspir":6744,"concrete ":6745,"leagu":6746,"ation for ":6747,"turns ":6748,"guard ":6749,"colony ":6750,"Albu":6751,"titles ":6752,"1998 ":6753,"1999 ":6754,"mush":6755,"long tons ":6756,"construction of ":6757,"attempt ":6758,"protection ":6759,"although the ":6760,"video game ":6761,"artists ":6762,"longest ":6763,"behind the ":6764,"required ":6765,"massive ":6766,"archaeological ":6767,"responsible for ":6768,"transferred ":6769,"Society ":6770,"antasy ":6771,"Vietnamese ":6772,"& ":6773,"700 ":6774,"Ara":6775,"Bond ":6776,"Rol":6777,"Ul":6778,"Way ":6779,"cot":6780,"caught ":6781,"re , ":6782,"aly":6783,"of C":6784,"of all ":6785,"stop":6786,"else":6787,"eless ":6788,"actors ":6789,"of the Year ":6790,"plain ":6791,"that this ":6792,"hair ":6793,"in the world ":6794,"deal":6795,"applic":6796,"short":6797,"Ste":6798,"its first ":6799,"ides ":6800,"they had ":6801,"finding ":6802,"render":6803,"anning ":6804,"lane ":6805,"up , ":6806,"steel ":6807,"belong":6808,"singles ":6809,"50 @,@ 000 ":6810,"because of the ":6811,"excep":6812,"in which the ":6813,"went on to ":6814,"restling ":6815,"believed that ":6816,"suggested that ":6817,"bodies ":6818,"tane":6819,"couple ":6820,"reports ":6821,"returned to the ":6822,"hospital ":6823,"Bowl ":6824,"simple ":6825,"earthqu":6826,"05 ":6827,"End ":6828,"Nich":6829,"Pic":6830,"We":6831,"tell":6832,"ero":6833,"ero ":6834,"ardi":6835,"alism ":6836,"ren ":6837,"realiz":6838,"a , and ":6839,"ective ":6840,"tion to ":6841,"rif":6842,"dial":6843,"with their ":6844,"convic":6845,". Ar":6846,"perhaps ":6847,"Stadium ":6848,"block":6849,"contact ":6850,"sector ":6851,"vert":6852,". Three ":6853,"offered ":6854,"interior ":6855,"where it ":6856,"capac":6857,"accur":6858,"took the ":6859,"Wilhelm ":6860,"east of the ":6861,"occurr":6862,"Princ":6863,"Department ":6864,"screen":6865,"c . ":6866,"Mario ":6867,"thesis ":6868,"intelligence ":6869,"opportunity ":6870,"list of ":6871,"eanwhile , ":6872,"trying to ":6873,"# ":6874,"67 ":6875,"Dar":6876,"NH":6877,"Odaenathus ":6878,"gained ":6879,"hu":6880,"put":6881,"path ":6882,"rates ":6883,"ery , ":6884,"the song ":6885,"arg":6886,"arrest":6887,"<unk> B":6888,"in July ":6889,"in December ":6890,"simul":6891,"rior ":6892,"pleas":6893,"using the ":6894,". The two ":6895,"spr":6896,"ocked ":6897,"oom ":6898,"Steve ":6899,"3 @,@ ":6900,"produced by ":6901,"substan":6902,"borne ":6903,". Pro":6904,"wrote that ":6905,"causing ":6906,"brief ":6907,"hortly ":6908,"surviving ":6909,"ability to ":6910,". Instead ":6911,"anything ":6912,"authorities ":6913,"independence ":6914,". Once ":6915,"moment ":6916,"digital ":6917,"Smith ":6918,"120 ":6919,"12 , ":6920,"26 , ":6921,"Hill":6922,"Spr":6923,"Sant":6924,"Tom":6925,"Tom ":6926,"dating ":6927,"far":6928,"fran":6929,"fai":6930,"fashi":6931,"mit":6932,"erly ":6933,"ander":6934,"<unk> . <unk> ":6935,"in \" ":6936,"to her ":6937,"asser":6938,"of the season ":6939,"evil ":6940,"condition ":6941,"lived ":6942,"opposition ":6943,"tioned ":6944,"cloth":6945,". As of ":6946,"2014 , ":6947,"Innis ":6948,"Martin ":6949,"regar":6950,"satis":6951,"ropol":6952,"captain ":6953,"results ":6954,"Like ":6955,"protagon":6956,"Green ":6957,"managed to ":6958,"Time ":6959,"animals ":6960,"R & B":6961,"tradition ":6962,"mi ( ":6963,"Finkelstein ":6964,"Turkish ":6965,"repair":6966,"convection ":6967,"Wheeler ":6968,"Week":6969,"cougar ":6970,"Golden ":6971,"cit":6972,"fear":6973,"ius ":6974,"ipp":6975,"lov":6976,"session ":6977,"tail":6978,"arily ":6979,"tific":6980,"as his ":6981,"stable ":6982,"is located ":6983,"an \" ":6984,"was completed ":6985,"adul":6986,"entered ":6987,"1920":6988,"projec":6989,"hibi":6990,"nois":6991,"ally , ":6992,"box":6993,". In 199":6994,"Ind":6995,"merg":6996,"knew ":6997,"cost":6998,". Due ":6999,"Anth":7000,"visual ":7001,"succeeded ":7002,"described by ":7003,"advent":7004,"collection ":7005,"Project ":7006,"losing ":7007,"compon":7008,"Grand S":7009,"replacement ":7010,"concep":7011,"episode of ":7012,"greatly ":7013,"dollar":7014,"silver ":7015,"Townsend ":7016,"Temple ":7017,"mile ( ":7018," = = Background = = \n":7019,"/ <unk> ":7020,"2 , the ":7021,"21 , ":7022,"Festival ":7023,"UTC ":7024,"flow ":7025,"mast":7026,"wild ":7027,"anz":7028,"y <unk> ":7029,"of A":7030,"iss ":7031,"ect":7032,"for an ":7033,"aggres":7034,". The game ":7035,"destruc":7036,"from her ":7037,"are also ":7038,"ingham ":7039,"de <unk> ":7040,"turn":7041,"not to ":7042,"not only ":7043,"obtain":7044,"trail":7045,"such a ":7046,"fusion ":7047,"invest":7048,"Color":7049,"able , ":7050,"lying ":7051,". Also ":7052,"replaced by ":7053,"USA ":7054,"sources ":7055,"roadway ":7056,"speaking ":7057,"programm":7058,"weapons ":7059,"Cross ":7060,"Crazy ":7061,"coastal ":7062,"AG":7063,"Bon":7064,"Ru":7065,"bishop ":7066,"mist":7067,"rying ":7068,"rural ":7069,"tment ":7070,"e was ":7071,"reserve ":7072,"realis":7073,"in some ":7074,"rose ":7075,"icop":7076,"that are ":7077,"that would ":7078,"agn":7079,") of ":7080,") = = = \n":7081,"ated with ":7082,"mill ":7083,"edom ":7084," At the ":7085,"only one ":7086,"deck ":7087,"landed ":7088,"research":7089,"regions ":7090,"made the ":7091,"made his ":7092,"torney ":7093,"helicop":7094,"of <unk> 's ":7095,"cap ":7096,"receive ":7097," From ":7098,"chair":7099,"claimed ":7100,"track and ":7101,"Company , ":7102,"shaped ":7103,"Coast ":7104,"drop ":7105,"retired ":7106,"method ":7107,"didn 't ":7108,"permanent ":7109,"Beyoncé ":7110,"As":7111,"Bul":7112,"Dis":7113,"Ira":7114,"Line ":7115,"Nev":7116,"Nesbit":7117,"Sch":7118,"bra":7119,"less":7120,"munic":7121,"oz":7122,"ers , and ":7123,"inem":7124,", however , ":7125,"on December ":7126,"\" by ":7127,"accompl":7128,"en 's ":7129,"@-@ based ":7130,"aging ":7131,". Among ":7132,"2006 , ":7133,"spective ":7134,"essing ":7135,"area , ":7136,"seventh ":7137,"Bridge ":7138,"though the ":7139,"withdraw":7140,"going to ":7141,"Anderson ":7142,"war , ":7143,"burg ":7144,"16 , ":7145,"sequently ":7146,"correc":7147,"attacked ":7148,"km ( ":7149,"examin":7150,"between the two ":7151,"Scott ":7152,"Hollywood ":7153,"tanks ":7154,"supporting ":7155,"speech ":7156,"osaurus ":7157,"positive review":7158,"services ":7159,"Keats ":7160,"Offic":7161,"shooting ":7162,"Minnesota ":7163,"Athle":7164,"Grand Slam ":7165,"Fey ":7166,"Jes":7167,"Lif":7168,"NBA ":7169,"SR ":7170,"This ":7171,"fish ":7172,"l , ":7173,"mic":7174,"oo ":7175,"sing the ":7176,"ánh ":7177,"antimony ":7178,"and D":7179,"ont":7180,"in August ":7181,"in April ":7182,"is \" ":7183,"ilton ":7184,"ow , ":7185,"plo":7186,"( \" ":7187,"deep":7188,", and <unk> ":7189,"ote ":7190,"pressur":7191,". It also ":7192,"servation ":7193,"to be the ":7194,"way to ":7195,"released in ":7196,"episode was ":7197,"considerable ":7198,"leader ":7199,"Pho":7200,"loss of ":7201,"that \" the ":7202,"example ":7203,"partment of ":7204,"mountain":7205,"wanted ":7206,"everth":7207,"Eva ":7208,"Mike ":7209,"enough to ":7210,"RAAF ":7211,"dropped ":7212,"chestr":7213,"branch ":7214,"appeal ":7215,"worldwide ":7216,"08 ":7217,"29 , ":7218,"66 ":7219,"fal":7220,"io ":7221,"tee":7222,"us of ":7223,"erran":7224,"inity ":7225,". John ":7226,"on April ":7227,"addres":7228,"that of ":7229,"s , and the ":7230,"etro":7231,"preme ":7232,"ook":7233,"their first ":7234,"ogen":7235,"secure ":7236,"airport ":7237,"teen":7238,"certified ":7239,"south":7240,"load ":7241,"used as a ":7242,"received the ":7243,"controvers":7244,"controversi":7245,"@-@ <unk> @-@ ":7246,"provides ":7247,"urrican":7248,"Class":7249,"top of the ":7250,"notes ":7251,". According to the ":7252,"instead of ":7253,"involved in ":7254,"downtown ":7255,"literary ":7256,"technical ":7257,"folk ":7258,"Croatian ":7259,"distinct ":7260,"technique ":7261,"incident ":7262,"Nicole ":7263,"7 , the ":7264,"Heav":7265,"Rail":7266,"Tha":7267,"Year":7268,"aif":7269,"bell ":7270,"fare ":7271,"mal":7272,"tree ":7273,"ycl":7274,"and L":7275,"@-@ to @-@ ":7276,"l @-@ ":7277,"ada ":7278,"in the second ":7279,"e , <unk> ":7280,"composition ":7281,"ers in ":7282,"to the west ":7283,"which were ":7284,"e of <unk> ":7285,"time , the ":7286,"block ":7287,"boat":7288,"up a ":7289,". <unk> 's ":7290,"interview ":7291,"resour":7292,"auti":7293,"released on ":7294,"fuel ":7295,"Andy ":7296,"lys":7297,"lythe ":7298,"protest ":7299,"funding ":7300,"typical ":7301,"compil":7302,"carried out ":7303,"reput":7304,"doll":7305,"was released on ":7306,"Military ":7307,"Philippines ":7308,"condoms ":7309,"HMS ":7310,"ederer ":7311,"23 , ":7312,"27 , ":7313,"72 ":7314,"76 ":7315,"Rog":7316,"Radi":7317,"San":7318,"aer":7319,"bout ":7320,"bank ":7321,"cake ":7322,"estr":7323,"may":7324,"ry":7325,"sti":7326,"tell ":7327,"veg":7328,"was":7329,"institu":7330,"alli":7331,"and were ":7332,"stations ":7333,"steam ":7334,"acher ":7335,"adult ":7336,"ustin ":7337,"superi":7338,"raft ":7339,"his father ":7340,"comic ":7341,"exerc":7342,"ation to ":7343,"immig":7344,"shel":7345,"ishop":7346,"regularly ":7347,"missions ":7348,"visited ":7349,"athle":7350,"appropri":7351,"Plat":7352,"providing ":7353,"south of the ":7354,"sense of ":7355,"ock Hav":7356,"Walter ":7357,"loss ":7358,"performances ":7359,"those who ":7360,"games , ":7361,"Attorney ":7362,"launch ":7363,"responsibility ":7364,"habitat ":7365,"Meridian ":7366,"Commander ":7367,"experim":7368,"sculpture ":7369,"calcul":7370,"administration ":7371,"typhoon ":7372,"Civil War ":7373,"sufficient ":7374,"capable of ":7375,"occasionally ":7376,"Arab ":7377,"98 ":7378,"Bill ":7379,"Head ":7380,"Igu":7381,"NC ":7382,"Oreg":7383,"Por":7384,"Sor":7385,"junction ":7386,"tin":7387,"ud ":7388,"ins , ":7389,", with the ":7390,"y to ":7391,"alry ":7392,"on 1 ":7393,"ing an ":7394,"ol , ":7395,"of the first ":7396,"@-@ year @-@ old ":7397,"ve the ":7398,"champion ":7399,") and the ":7400,"spok":7401,"pregn":7402,"1 and ":7403,"all of the ":7404,"on the <unk> ":7405,"seri":7406,". In his ":7407," The <unk> ":7408,"illustr":7409,"commemor":7410,"offer ":7411,"Alf":7412,"coach":7413,"followed ":7414,"embass":7415,". With":7416,"bie ":7417,"1960s ":7418,"buri":7419,"pitch ":7420,"Musli":7421,"gameplay ":7422,"referenc":7423,"claimed that ":7424,"fellow ":7425,"cannot ":7426,"roll ":7427,"Ross ":7428,"Depression ":7429,"categ":7430,"Air Force ":7431,"neighbor":7432,"specifically ":7433,"Premier ":7434," J":7435,"24 , ":7436,"28 , ":7437,"AI ":7438,"Cel":7439,"Da":7440,"K ":7441,"K '":7442,"Two ":7443,"bb":7444,"bill ":7445,"cities ":7446,"kno":7447,"ll ":7448,"wel":7449,"thos":7450,"or \" ":7451,"that he was ":7452,"quite ":7453,"Chil":7454,"worst ":7455,"scap":7456,"guil":7457,"start of the ":7458,"com ":7459,"Carib":7460,"before being ":7461,"comple":7462,"engine ":7463,"10 @,@ 000 ":7464,"Leod ":7465,"1986 ":7466,"defended ":7467,"issues ":7468,"suggest ":7469,"village of ":7470,"identified ":7471,"recogni":7472,"II , ":7473,"expanded ":7474,"problem":7475,"sentence ":7476,"pair of ":7477,"fields ":7478,"countries ":7479,"opinion ":7480,"getting ":7481,"Virginia Tech ":7482,"dissipated ":7483,"Doctor ":7484,"philosoph":7485,"Caribbe":7486,"41 ":7487,"Abu":7488,"Dam ":7489,"Domin":7490,"Gold ":7491,"Hu":7492,"Sw":7493,"danc":7494,"dry ":7495,"gath":7496,"ju":7497,"journey ":7498,"lin ":7499,"mem":7500,"wish":7501,"wick":7502,"z , ":7503,"erected ":7504,"erry ":7505,"on January ":7506,"as of ":7507,"its":7508,"isi":7509,"or a ":7510,"emet":7511,"emble ":7512,"with other ":7513,"with two ":7514,"in the late ":7515,"predec":7516,"reception ":7517,". In this ":7518,"flank ":7519,". \" S":7520,". Of ":7521,"man , ":7522,"decline ":7523,"upgrad":7524,"odg":7525,"\" , a ":7526,"symp":7527,"council ":7528,"accept":7529,"rise ":7530,"described as ":7531,"eff ":7532,"1 @.@ 5 ":7533,"patrol":7534,"McCar":7535,"integ":7536,"failure ":7537,"hard":7538,"concept ":7539,"association ":7540,"km / h ( ":7541,"growth ":7542,"Francis":7543,"literature ":7544,"improved ":7545,"extrat":7546,"techniqu":7547,"Jamal ":7548,"Summer ":7549,". Additionally ":7550,"Crazy in Love ":7551,"emetery ":7552,"Bishop ":7553,"Fl":7554,"Fox ":7555,"Family ":7556,"Good ":7557,"GN ":7558,"IV ":7559,"Lev":7560,"Tour":7561,"dment ":7562,"gets ":7563,"ks and ":7564,"pher ":7565,". ' ":7566,"<unk> at ":7567,"represent ":7568,"ing him ":7569,"station":7570,"acid ":7571,"was in ":7572,"was originally ":7573,"of the city ":7574,"distric":7575,"convo":7576,") ; ":7577,"exist ":7578,"prefer":7579,"had no ":7580,"uge ":7581,"creator ":7582,"ancy ":7583,"albums ":7584,"appearanc":7585,"orders ":7586,"considered a ":7587,"delay":7588,"correspon":7589,"best @-@ ":7590,"someone ":7591,"ographer ":7592,"sky ":7593,"Act ":7594,"containing ":7595,"suffer":7596,"holding ":7597,"Carey 's ":7598,"effort ":7599,"measures ":7600,"promotion ":7601,"onna ":7602,"escape ":7603,"Light Horse ":7604,"People ":7605,"House of ":7606,"drum ":7607,"Historic ":7608,"yellow ":7609,"academic ":7610,"article ":7611,"57 ":7612,"Ban":7613,"Cub":7614,"Fowler ":7615,"Hon":7616,"Jurch":7617,"Kang ":7618,"Me ":7619,"Mass":7620,"Memor":7621,"aes":7622,"hos":7623,"lob":7624,"tel":7625,"yram":7626,"erog":7627,"induc":7628,"o <unk> ":7629,"of @-@ ":7630,"er ( ":7631,"ene ":7632,"es , the ":7633,"ata ":7634,"conference ":7635,"department ":7636,"ocated ":7637,"note ":7638," = = C":7639,"ate and ":7640,"2 @,@ 000 ":7641,"portion of ":7642,"display":7643,"from the <unk> ":7644,"commit":7645,"assist ":7646,"offers ":7647,"\" , but ":7648,"Alkan ":7649,"ship was ":7650,"second @-@ ":7651,"direction ":7652,"trip ":7653,"Juan ":7654,"dream ":7655,"Columb":7656,"strike ":7657,"governor ":7658,"sites ":7659,"Mah":7660,"magaz":7661,"statement ":7662,"transfer ":7663,"days later ":7664,"tracks ":7665,"reasons ":7666,"pilot ":7667,"chapel ":7668,"treatment ":7669,"Georgian ":7670,"strongly ":7671,"difficulty ":7672,"extremely ":7673,"oulder ":7674,"thousan":7675,"knowledge ":7676,"Chief ":7677,"atmosphere ":7678,"Thunderbirds ":7679,"Bor":7680,"DS ":7681,"GA ":7682,"Mur":7683,"Ry":7684,"Sus":7685,"frig":7686,"fitted ":7687,"mad":7688,"nung ":7689,"ry , ":7690,"throw ":7691,"rey ":7692,"and <unk> , ":7693,"ensu":7694,"at , ":7695,"at <unk> , ":7696,"astic ":7697,"was later ":7698,"'s death ":7699,"diver":7700,") is ":7701,"it a ":7702,"abs":7703,". And ":7704,"oods ":7705,"had to be ":7706,"dern ":7707,"; however , ":7708,"boy":7709,"secret ":7710,"who is ":7711,"mean ":7712,"son and ":7713,"resol":7714,"basic ":7715,"baseball ":7716,"lock ":7717,"the <unk> of ":7718,"ed , but ":7719,"lot of ":7720,". They are ":7721,". After a ":7722,"bring":7723,". No ":7724,"ylan ":7725,"River , ":7726,"human":7727,"types of ":7728,"changed ":7729,"equipp":7730,"Science ":7731,"Rober":7732,"New York City ":7733,"episodes ":7734,"introduced ":7735,"garian ":7736,"efforts ":7737,"assistant ":7738,"technology ":7739,"afterno":7740,"extra ":7741,"statis":7742,"accompani":7743,"Public ":7744,"rarely ":7745,"Philadelphia ":7746,"Rome ":7747,"Ten ":7748,"task ":7749,"u , ":7750,"win the ":7751,"iness ":7752,"reality ":7753,"ons of ":7754,"in February ":7755,"as to ":7756,"at its ":7757,"isher ":7758,"istic ":7759,"agg":7760,"agle ":7761,"ched ":7762,"( A":7763,"entry ":7764,"in the same ":7765,"try , ":7766,"nothing ":7767,"perfect ":7768,". Over ":7769,"annivers":7770,"when he was ":7771,"decis":7772,"lands , ":7773,"him , ":7774,"line of ":7775,"ed on a ":7776,"appearances ":7777,"operating ":7778,"Colum":7779,"weigh":7780,"gives ":7781,"victim":7782,"US 2 ":7783,"innings ":7784,"equiv":7785,"of Mexico ":7786,"refus":7787,"reported that ":7788,"value ":7789,"Mountain":7790,"granted ":7791,"provinc":7792,"mph ) ":7793,"devo":7794,"learned ":7795,"speed ":7796,"data ":7797,"Nether":7798,"policy ":7799,"principal ":7800,"associated with ":7801,"younger ":7802,"rhyth":7803,"wedding ":7804,"recommended ":7805,"Sunday ":7806,"Haifa ":7807,"isolated ":7808,"Alabama ":7809,"Douglas ":7810,"Memorial ":7811,"anniversary ":7812,"02 ":7813,"63 ":7814,"68 ":7815,"77 ":7816,"79 ":7817,"? \" ":7818,"Five ":7819,"Hindu":7820,"If ":7821,"Lewis ":7822,"Press ":7823,"Qed":7824,"Sul":7825,"Ty":7826,"cep":7827,"eh":7828,"eor":7829,"hits ":7830,"key":7831,"sen ":7832,"utionary ":7833,"von ":7834,"ory , ":7835,"alem ":7836,"and two ":7837,"in England ":7838,"ing that the ":7839,"to B":7840,"stopp":7841,"\" is ":7842,"with \" ":7843,"beach ":7844,"( C":7845,"lives ":7846,"proved ":7847,"hip ":7848,"set of ":7849,"partly ":7850,"its own ":7851,"on the island ":7852,"turre":7853,"avo":7854,"assador ":7855,". He had ":7856,"would have been ":7857,"achus":7858,"serves ":7859,"signing ":7860,"ology , ":7861,"missing ":7862,"World Cup ":7863,"Isab":7864,"burns ":7865,"life = = \n":7866,"reaching ":7867,"drama ":7868,"candi":7869,"Committee ":7870,"harb":7871,"commented that ":7872,"rapid ":7873,"Somal":7874,"violence ":7875,"occupi":7876,"was released in ":7877,"dropp":7878,"newspap":7879,"experienced ":7880,"vehicles ":7881,"Peninsul":7882,"kind of ":7883,"Engineer ":7884,"Theatre ":7885,"franch":7886,"veget":7887," E":7888,"52 ":7889,"58 ":7890,"59 ":7891,"? ":7892,"Dun":7893,"Dev":7894,"Far":7895,"Le ":7896,"NC":7897,"Ode ":7898,"bes":7899,"cru":7900,"eir":7901,"gree ":7902,"god":7903,"ield ":7904,"night":7905,"ule ":7906,"vel":7907,"wr":7908,"ing them ":7909,"ous , ":7910,"chron":7911,"rail ":7912,"his <unk> ":7913,"degree ":7914,"spar":7915,"poor":7916,"port , ":7917,"<unk> and <unk> , ":7918,"rank ":7919,"desire ":7920,"age and ":7921,"shif":7922,"formal ":7923,"with the <unk> ":7924,"obal ":7925," Ar":7926,"motion ":7927,"ance to ":7928,". Because ":7929,"about a ":7930,"follows ":7931,"Park , ":7932,"goes ":7933,"series ' ":7934,"green ":7935,"appeared ":7936,"a full ":7937,"Plot ":7938,"south @-@ ":7939,"demol":7940,"Chart ":7941,"Commun":7942,"Command ":7943,"organized ":7944,"Department of ":7945,"looked ":7946,"Magazine ":7947,"Prime ":7948,"picked ":7949,"speak ":7950,"Governor ":7951,"Braathens SAFE ":7952,"rate of ":7953,". Only ":7954,"temperature ":7955,"Northern Ireland ":7956,"ephen ":7957,"shape ":7958,"apparent ":7959,"storyline ":7960,"ironclad ":7961,"WWE ":7962,"Gordon ":7963,"Daily ":7964,"71 ":7965,"Bre":7966,"Ben":7967,"Book ":7968,"Gab":7969,"Osl":7970,"baby ":7971,"cab":7972,"cited ":7973,"fit ":7974,"ling":7975,"nel":7976,"tty ":7977,"uble ":7978,"yst":7979,"ines , ":7980,"ani ":7981,"as one of the ":7982,"ics , ":7983,"ela ":7984,"ites ":7985,"asks ":7986,"ows ":7987,"for this ":7988,"district ":7989,"opher ":7990,"it had ":7991,"3 @,@ 000 ":7992,", the first ":7993,"puzz":7994,"guitar":7995,"render ":7996," @-@ Jamal ":7997,"t of a ":7998,"decade ":7999,"surpris":8000,"train ":8001,"anger ":8002,"locations ":8003,"Joe ":8004,"Andrew ":8005,"number one ":8006,"transpor":8007,"places ":8008,"highligh":8009,"back to the ":8010,"during his ":8011,"Liu ":8012,"Rox":8013,"type of ":8014,"that he had ":8015,"News ":8016,"Holy ":8017,"civilian ":8018,"Battle of ":8019,"editerran":8020,"witn":8021,". As a result , ":8022,"arrangement ":8023,"Helms ":8024,"virt":8025,"threaten":8026,"Daniel ":8027,"Alexander ":8028,"remnants ":8029,"acknowle":8030,"Observ":8031,"twelve ":8032,"Weekly ":8033,"Industry ":8034,"Iguan":8035,"editerranean ":8036,"89 ":8037,"Ari":8038,"Gall":8039,"Iron ":8040,"abe":8041,"cut":8042,"jack":8043,"rugby ":8044,"tells ":8045,"ye ":8046,"zen ":8047,"d , ":8048,"y min":8049,"resum":8050,"reconn":8051,"in fron":8052,"in Cha":8053,"ing with ":8054,"at W":8055,"why ":8056,"for example , ":8057,"e , with ":8058,"earn":8059,") is a ":8060,"but was ":8061,"store ":8062,"has the ":8063,"@.@ 5 ":8064,"resembl":8065,"regional ":8066,"tions of the ":8067,"way , ":8068,". Mc":8069,"link ":8070,"step ":8071,"New Yor":8072,"winner ":8073,"visible ":8074," By ":8075,"resulted in ":8076,"ful , ":8077,"to reach ":8078,"sense ":8079,"career , ":8080,"residential ":8081,"watch ":8082,"workers ":8083,"felt that ":8084,"once again ":8085,"identifi":8086,"praised ":8087,"target ":8088,"pitcher ":8089,"Jerus":8090,"Revolution ":8091,"Gibr":8092,"expansion ":8093,"everything ":8094,"Gully ":8095,"emotional ":8096,"dedicated ":8097,"Baltimore ":8098,"window ":8099,"Special ":8100,"Simpsons ":8101," According to ":8102,"Los Angeles ":8103,"teeth ":8104,"dollar ":8105,"22 , ":8106,"5 , and ":8107,"Mogadishu ":8108,"Mediterranean ":8109,"SB":8110,"Sal":8111,"cinem":8112,"fying ":8113,"hill ":8114,"lap ":8115,"thum":8116,"ined ":8117,"ing in the ":8118,"to get ":8119,"aten ":8120,"itan ":8121,"ist , ":8122,"was given ":8123,"esc":8124,"ammy ":8125,"conqu":8126,"ents of ":8127,") to ":8128,"deem":8129,"ooth ":8130,"parts of ":8131,"ed the <unk> ":8132,"derick ":8133,"played by ":8134,"upon the ":8135,"served as ":8136,"marked ":8137,"Art ":8138,"fun ":8139,"film , ":8140,"Ann":8141,"Anti":8142,"became the first ":8143,"found the ":8144,"1940 ":8145,"1988 ":8146,"u 's ":8147,"ships were ":8148,"humans ":8149,"somewhat ":8150,"Boy ":8151,"weak ":8152,"arrival ":8153,"squad ":8154,"War , ":8155,"added to the ":8156,"label ":8157,"coupl":8158,"classical ":8159,"platform ":8160,"Lorenz":8161,"declared ":8162,"defini":8163,"alternative ":8164,"chapter ":8165,"collection of ":8166,"parts of the ":8167,"judg":8168,"memorial ":8169,"circum":8170,"° C ":8171,"Evergl":8172,"Howard ":8173,"battalions ":8174,"mushroom ":8175,"lysses ":8176,"3D ":8177,"Bart ":8178,"Jain ":8179,"UN ":8180,"gover":8181,"jill":8182,"rack":8183,"taught ":8184,"uti":8185,"var":8186,"ina , ":8187,"ardo ":8188,"rement ":8189,"of whom ":8190,"ing . \n":8191,"eless , ":8192,"ac ":8193,"amber ":8194,"whel":8195,"used in the ":8196,"by his ":8197,"s , who ":8198,"exter":8199,"noting ":8200,"partial ":8201,"firing ":8202,"scop":8203,"overwhel":8204,"commod":8205,"I was ":8206,"Institut":8207,". Shortly ":8208,"charter ":8209,"only a ":8210,"man 's ":8211,"marks ":8212,"coordin":8213,"1993 ":8214,"1996 ":8215,"teacher ":8216,". This is ":8217,"along with the ":8218,"1984 ":8219,"weal":8220,"intendo ":8221,"led to the ":8222,"medieval ":8223,"Manag":8224,"easily ":8225,"Charlie ":8226,"designed to ":8227," He ":8228,"Secretary ":8229,"Mounted ":8230,"saw the ":8231,"Minister ":8232,"controlled ":8233,"command of ":8234,"happy ":8235,"Missouri River ":8236,"peaked at number ":8237,"documentary ":8238,"credited ":8239,"Director ":8240,"parallel ":8241,"those of ":8242,"82 ":8243,"Asia ":8244,"Boy":8245,"Fel":8246,"Night ":8247,"Ric":8248,"Tu":8249,"gone ":8250,"hem":8251,"lings ":8252,"mar ":8253,"mine ":8254,"wise ":8255,", an ":8256,"univer":8257,"a <unk> , ":8258,"is known ":8259,"an important ":8260,"essive ":8261,"const":8262,"comes ":8263,"from its ":8264," = = Produc":8265," = = Plot ":8266,"persist":8267,"5 and ":8268,"ed the first ":8269,"so that ":8270,"fid":8271,"this , ":8272,"ills ":8273,"flood ":8274,". Between ":8275,"resh ":8276,"ologists ":8277,"1994 ":8278,"New Jer":8279,"heal":8280,"Jane ":8281,". We ":8282,"what he ":8283,"authors ":8284,"ficial ":8285,"Perry ":8286,"right to ":8287,"stands ":8288,"expensive ":8289,"become a ":8290,"common star":8291,"discovered ":8292,"Turner ":8293,"penalty ":8294,"depicted ":8295,"immediate ":8296,"Hamels ":8297,"achieved ":8298,"driven ":8299,"Emperor ":8300,"challenge ":8301,"Torres ":8302,". Up":8303,"Territ":8304,"chemical ":8305,"converted ":8306,"incorporated ":8307,"tomb ":8308,"has also been ":8309,"Italy ":8310,"badly ":8311,"restaurant ":8312,"Colorado ":8313,"Phoen":8314,"Caribbean ":8315,"MTV ":8316,"Medi":8317,"ao ":8318,"big":8319,"ees ":8320,"lot":8321,"path":8322,"<unk> ) , ":8323,"enh":8324,"in that ":8325,"to <unk> , ":8326,"to have been ":8327,"at that ":8328,"acre ":8329,"plane ":8330,"plants ":8331,"used by ":8332,"( M":8333,"in the final ":8334,"s , with ":8335,"ett ":8336,"vide":8337,"partially ":8338,"at the age of ":8339,"184":8340,". Throughout ":8341,"when it ":8342,"into an ":8343,"withdrew ":8344,"1990 ":8345,"tivision ":8346,"life , ":8347,"strike":8348,"discipl":8349,"Mont":8350,"fungu":8351,"Person":8352,"band 's ":8353,"raised ":8354,"destro":8355,"career = = \n":8356,"in which he ":8357,"travell":8358,"carried ":8359,"ammuni":8360,"honor":8361,"Republican ":8362,"alized ":8363,"all of F":8364,"adapted ":8365,"MacLeod ":8366,"battery ":8367,"facilities ":8368,"split ":8369,"encounter":8370,"Rhodesian ":8371,"Independent ":8372,". Even ":8373,"controversy ":8374,"110 ":8375,"Beach ":8376,"Fron":8377,"I. ":8378,"Kenn":8379,"Lin":8380,"Ulysses ":8381,"Van ":8382,"jaz":8383,"kes ":8384,"lay ":8385,"ror ":8386,"n and ":8387,"ork ":8388,"to find ":8389,"to create ":8390,"was un":8391,"ria ":8392,"for The ":8393,"champion":8394,"chase ":8395,". The album ":8396,"fort":8397,"deities ":8398,"ers in the ":8399,"poems ":8400,"disrup":8401,"versions ":8402,"assembl":8403,"Marines ":8404,"offense ":8405,"in 193":8406,"basin ":8407,"relative ":8408,"Carter ":8409,"Arts ":8410,"consider ":8411,"certain":8412,"ario ":8413,"require ":8414,"episode of the ":8415,"high school ":8416,"belief ":8417,"Montan":8418,"fictional ":8419,"hero ":8420,"Max ":8421,"maintain ":8422,"extension ":8423,"Recording ":8424,"reviewer ":8425,"away from the ":8426,"Angl":8427,"hydro":8428,"control of the ":8429,"television series ":8430,"paintings ":8431,"ordered ":8432,"houses ":8433,"hundre":8434,"It 's ":8435,"prevent":8436,"effectively ":8437,"difficult to ":8438,"prior to the ":8439,"possession ":8440,"North Kore":8441,"Belg":8442,"twenty @-@ ":8443,"photograph":8444,"Chronic":8445,"submarine ":8446,"Omaha ":8447,"expedition ":8448,"grounds ":8449,"250 ":8450,"69 ":8451,"Fall":8452,"VN ":8453,"bone ":8454,"dynasty ":8455,"fic ":8456,"gall":8457,"hang":8458,"lum":8459,"pyram":8460,"ts , and ":8461,"‑ ":8462,"<unk> his ":8463,"and her ":8464,"on March ":8465,"in South ":8466,"to use ":8467,"ston":8468,"elly ":8469,"\" . <unk> ":8470,"acent ":8471,"of the same ":8472,". The next ":8473,"from their ":8474,"exha":8475,"abol":8476,"absor":8477,"20 , ":8478,"ette ":8479,"timate ":8480,"boy ":8481,"<unk> and a ":8482,"@,@ 0":8483,"assaul":8484,"formally ":8485,"as a <unk> ":8486,". Som":8487,"Under ":8488,"played in ":8489,"encies ":8490,"she is ":8491,"America , ":8492,"ampions ":8493,"titude ":8494,"within a ":8495,"There ":8496,"song 's ":8497,"math ":8498,"being a ":8499,"accused ":8500,"ione":8501,"Leon":8502,"draf":8503,"North American ":8504,"birth":8505,"arrived ":8506,"actual ":8507,"connection ":8508,"sourc":8509,"nucleus ":8510,"narrow ":8511,"1 – 0 ":8512,"France , ":8513,"ajev":8514,"Airport ":8515,"multi @-@ ":8516,"Malay":8517,"normally ":8518,"terms of ":8519,"apparently ":8520,"assigned to ":8521,"astronom":8522,"Area ":8523,"Maryland ":8524,"agricultural ":8525,"DuMont ":8526,"elsewhere ":8527,"track and field ":8528,"controversial ":8529,"Francisco ":8530,"circumst":8531,"06 ":8532,"AD ":8533,"Donald ":8534,"Fantasy ":8535,"Gil":8536,"Kil":8537,"Nintendo ":8538,"Sin":8539,"fast":8540,"lb ":8541,"pag":8542,"pay":8543,"psy":8544,"sat":8545,"van ":8546,"wants ":8547,"yer ":8548,"inland ":8549,"orist ":8550,"roof ":8551,"ate":8552,"amate":8553,"@-@ of @-@ ":8554,"for two ":8555,"divisions ":8556,"channel ":8557,"ts the ":8558,"firm ":8559,"lowest ":8560,"; it was ":8561,"rang ":8562,"overseas ":8563,"at the end of the ":8564,"committee ":8565,"Marl":8566,"essential ":8567,"decreas":8568,"fill ":8569,". Before ":8570,"eeded to ":8571,"ities , ":8572,"amphibi":8573,". Meanwhile , ":8574,"@,@ 000 copies ":8575,"andy ":8576,"aire ":8577,"— and ":8578,"singing ":8579,"said that the ":8580,"million in ":8581,"Islands ":8582,"considered the ":8583,"bring ":8584,"medium ":8585,"role in the ":8586,"historians ":8587,"New York Times ":8588,"schem":8589,"concerns ":8590,"establishment ":8591,"compared to ":8592,"province ":8593,"reveals ":8594,"territories ":8595,"Veron":8596,"beginning of the ":8597,"supported by ":8598,"advanced ":8599,"europ":8600," = = Des":8601,"abandoned ":8602,"environment ":8603,"rescu":8604,"Radio ":8605,"knots ( ":8606,"reconnaissance ":8607,"Jerusalem ":8608,"' , ":8609,"- ( ":8610,"03 ":8611,"Flight ":8612,"Jenn":8613,"Kra":8614,"Mot":8615,"Rod":8616,"gal":8617,"jump ":8618,"nic ":8619,"oh":8620,"yth":8621,"zone ":8622,"answ":8623,"orial ":8624,"ara ":8625,"onto the ":8626,"itch ":8627,"accommod":8628,"or and ":8629,"was held ":8630,"sible ":8631,"@-@ in @-@ ":8632,"usad":8633,"hi ":8634,"fired ":8635,"ed to have ":8636,"; <unk> ":8637,"worth ":8638,"aving ":8639,"has not ":8640,"end the ":8641,"producers ":8642,"withdraw ":8643,"Third ":8644,"1991 ":8645,"song was ":8646,"New South ":8647,"choice ":8648,"risis ":8649,"slop":8650,"wrot":8651,"north @-@ ":8652,"fur ":8653,"killed and ":8654,"losses ":8655,"horses ":8656,"noted that the ":8657,"villag":8658,"myth":8659,"actress ":8660,"fram":8661,"indicate ":8662,"narrow":8663,"Rio ":8664,"altern":8665,"must be ":8666,"railway ":8667,"favorite ":8668,"Victorian ":8669,"awarded the ":8670,"Sarnia ":8671,"lasted ":8672,"ASA ":8673,"romantic ":8674,"Constantine ":8675,"Nichol":8676,"R & B ":8677,"noisy min":8678,"Anthony ":8679,"equivalent ":8680,"Iguanodon ":8681,"09 ":8682,"Cas":8683,"Eliz":8684,"Gang":8685,"Lenn":8686,"Six ":8687,"Sports ":8688,"U2 ":8689,"Ye":8690,"atic":8691,"atives ":8692,"ca ":8693,"dal":8694,"ided ":8695,"pair":8696,"yon ":8697,"youth ":8698,"° F":8699,"a series of ":8700,"on an ":8701,"in addition ":8702,"ature":8703,"outs ":8704,"elabor":8705,"\" . In ":8706,"itz ":8707,"adic":8708,"beauti":8709,"consul":8710,"<unk> , and <unk> ":8711,"depos":8712,"spot ":8713,"ocean ":8714," = = E":8715,"recre":8716,"ugh":8717,"portion of the ":8718,"manner ":8719,"first down ":8720,"awar":8721,"awa ":8722,"meets ":8723,"phase ":8724,"merch":8725,"interchange ":8726,"sever":8727,"him the ":8728,"she had ":8729,". Further ":8730,"a <unk> of ":8731,"rival ":8732,"heavi":8733,"moved to the ":8734,"\" <unk> \" , ":8735,"carrying ":8736,"wins ":8737,"opera ":8738,"operate ":8739,"team 's ":8740,"receiving ":8741," \" The ":8742,"defen":8743,"defend":8744,". Route ":8745,"1969 ":8746,"dams ":8747,"lair ":8748,"considered to be ":8749,"included a ":8750,"responded ":8751,"Plunk":8752,"history of ":8753,": \" I ":8754,"Harry ":8755,"development of ":8756,"consisting of ":8757,"Royal Navy ":8758,"heart ":8759,"labor":8760,"dominant ":8761,"combination of ":8762,"industrial ":8763,"youngest ":8764,"Khánh ":8765,"systems ":8766,"diameter ":8767,"adjacent ":8768,"ock Haven ":8769,"Columbia ":8770,"Liu Kang ":8771," = = Production = = \n":8772,"0s , the ":8773,"86 ":8774,"AR":8775,"Bern":8776,"Crown ":8777,"Ga":8778,"Hud":8779,"Hall of F":8780,"Mul":8781,"MA ":8782,"RE":8783,"Rugby ":8784,"Ridge ":8785,"Type ":8786,"West":8787,"bann":8788,"bited ":8789,"iber":8790,"pain ":8791,"rist ":8792,"<unk> to the ":8793,"releg":8794,"and \" ":8795,"to help ":8796,"stadium ":8797,"\" <unk> <unk> ":8798,"he would ":8799,"ure , ":8800,"that day ":8801,"for several ":8802,"confron":8803,"enters ":8804,". The most ":8805,"oss ":8806,"sus ":8807,"<unk> , <unk> and ":8808,"<unk> , and the ":8809,"appli":8810," = = Early ":8811,"parliament ":8812,"she":8813,"Story ":8814,"aker ":8815,"ake , ":8816,"for the <unk> ":8817,": A":8818,"183":8819,". \" <unk> ":8820,"ed a new ":8821,"regist":8822,"sides ":8823,"city of ":8824,"found in the ":8825,"1964 ":8826,"understanding ":8827,"opened in ":8828,"showed ":8829,"allows ":8830,"limit":8831,"hero":8832,"infra":8833,"Maed":8834,"Boise ":8835,"novel":8836,"cycle ":8837,"holid":8838,"part in the ":8839,"book , ":8840,"identity ":8841,"frame ":8842,"Cape ":8843,"indicated ":8844,"Frederick ":8845,"Infantry Division ":8846,"Braz":8847,"finished the ":8848,"truth ":8849,"purpose ":8850,"inside the ":8851,"ceremony ":8852," Following the ":8853,"Queens":8854,"taneously ":8855,"thousands of ":8856,"in Chains ":8857,"SBN ":8858,"88 ":8859,"Go":8860,"Nathan ":8861,"Wol":8862,"atively ":8863,"ban ":8864,"dock ":8865,"fec":8866,"mature ":8867,"nest":8868,"sle":8869,"search":8870,"ān":8871,", is ":8872,", though ":8873,"y . \n":8874,"tist ":8875,"ing , and ":8876,"atom":8877,"\" . ":8878,"itual ":8879,"items ":8880,"acres ( ":8881,"was created ":8882,"of the game ":8883,"agents ":8884,"ents and ":8885,"his death ":8886,"ours ":8887,"ooking ":8888,"parties ":8889,"ingale ":8890,"ume ":8891,"attle ":8892,"Chel":8893,"also be ":8894,"illa ":8895,"awn ":8896,"credi":8897,"Indu":8898,"peac":8899,"time the ":8900,"annually ":8901,"surfac":8902,"following a ":8903,". Fur":8904,"made it ":8905,"They ":8906,"complain":8907,"film was ":8908,"it was not ":8909,"Anist":8910,"populations ":8911,"years old ":8912,"cases ":8913,"remained in ":8914,"result of the ":8915,"species of ":8916,"Canter":8917,"child":8918,"criticis":8919,"leadership ":8920,"sentim":8921,"funds ":8922,"successor ":8923,"skin ":8924,"history = = \n":8925,"ling Stone ":8926,"Grammy ":8927,"ockey ":8928,"include the ":8929,"crosses ":8930,"contained ":8931,"McCall ":8932,"neck ":8933,"divine ":8934,"estimated at ":8935,"account ":8936,"murder":8937,"soft ":8938,"routes ":8939,"weaken":8940,"interest in ":8941,"falling ":8942,"theatre ":8943,"safety ":8944,"Critical ":8945,"Water":8946,"Admiral ":8947,"micro":8948,"itsune ":8949,"Hindu ":8950,"europium ":8951,"8 , and ":8952,"Age ":8953,"Boo":8954,"Bru":8955,"DNA ":8956,"Hg ":8957,"NL ":8958,"Pres":8959,"Vice ":8960,"kesp":8961,"lb":8962,"lu":8963,"mut":8964,"sar":8965,"stic":8966,"smo":8967,"tack":8968,"t <unk> ":8969,"insist":8970,"inHg ":8971,"arc":8972,"arts ":8973,"remin":8974,"online ":8975,"entitled ":8976,"a ; ":8977,"to provide ":8978,"ick , ":8979,"m and ":8980,"ous and ":8981,"is often ":8982,"ridg":8983,"plom":8984,"diplom":8985,"1914 ":8986,"leuk":8987,"forest":8988,"it . \n":8989,"apart ":8990,"spring ":8991,"shell ":8992,"Starr":8993,"4 @,@ ":8994,"scatter":8995,"storms ":8996,"after being ":8997,"crime ":8998," <unk> 's ":8999,"grow ":9000,"Alan ":9001,"ebr":9002,"position of ":9003,"pointed ":9004,"developing ":9005,"Conf":9006,"Confeder":9007,"said the ":9008,"1947 ":9009,"loan ":9010,"Prov":9011,"came to ":9012,"initiative ":9013,"attacking ":9014," This ":9015,"clearly ":9016,"influential ":9017,"crossing ":9018,"concerned ":9019,"club 's ":9020,"return to the ":9021,"ordered to ":9022,"pitched ":9023,"required to ":9024,"schools ":9025,"classic ":9026,"Hamilton ":9027,"sentenc":9028,"Studio":9029,"Friends ":9030,"objective ":9031,"opponents ":9032,"minimum ":9033,"Gibraltar ":9034,"kespear":9035,"07 ":9036,"2 , and ":9037,"A @-@ ":9038,"Bir":9039,"Blythe ":9040,"Den":9041,"Destin":9042,"IGN ":9043,"Late ":9044,"Luc":9045,"Sil":9046,"Top ":9047,"Television ":9048,"W ":9049,"You":9050,"ativ":9051,"gin ":9052,"hin":9053,"hotel ":9054,"les and ":9055,"lot ":9056,"sin":9057,"tes":9058,"wine ":9059,"yweight ":9060,"erce ":9061,"orchestr":9062,"<unk> for the ":9063,"ties of ":9064,"on \" ":9065,"in T":9066,"atus ":9067,"elet":9068,"\" as ":9069,"iter":9070,"itage ":9071,"is that ":9072,"at home ":9073,"islands ":9074,"@-@ off ":9075,"@-@ scale ":9076,"( R":9077,"cons":9078,"suitable ":9079,"lip":9080,"theater ":9081,"it of ":9082,"aprang ":9083,"de Jan":9084,"Champion ":9085,"black":9086,"this was ":9087,"this time , ":9088,"at the same ":9089,"flights ":9090,"played a ":9091,"when a ":9092,"when she ":9093,"ongol":9094,"Bridg":9095,"trapp":9096,"goal":9097,"poly":9098,"carved ":9099,"ton , ":9100,"engage ":9101,"vision":9102,"embar":9103,"Works ":9104,"life and ":9105,"1941 ":9106,"viewers ":9107,"August":9108,"broad ":9109,"u F":9110,"1960 ":9111,"graph ":9112,"burg":9113,"160 ":9114,"as \" the ":9115,"senal ":9116,"Protest":9117,"tropical cycl":9118,"compound ":9119,"Corpor":9120,"support the ":9121,"clean ":9122,"stated that the ":9123,"Quin":9124,"Naval ":9125,"females ":9126,". For the ":9127,". While the ":9128,"learning ":9129,"Review":9130,"colonies ":9131,"regular season ":9132,"layer ":9133,"soil ":9134,"ulls ":9135,"analy":9136,"scholars ":9137,"classifi":9138,"Congress ":9139,"ninth ":9140,"tribute ":9141,"ceremon":9142,"victories ":9143,"Yankovic ":9144,"athletes ":9145,"chairman ":9146,"Oregon ":9147,"Abu @-@ Jamal ":9148,"convoy ":9149," = = Plot = = \n":9150,"satell":9151,"de Janeir":9152,"130 ":9153,"900 ":9154,"CB":9155,"Dubl":9156,"Kir":9157,"Out":9158,"Satur":9159,"covers ":9160,"fine ":9161,"kets ":9162,"pack":9163,"rum":9164,"sanc":9165,"zon":9166,"zen":9167,"ed into the ":9168,"ors and ":9169,"<unk> on the ":9170,"of War ":9171,"to give ":9172,"rol ":9173,"he has ":9174,"or more ":9175,"was appointed ":9176,"@-@ and @-@ ":9177,"rid":9178,"whe":9179,"rations ":9180,"ted by the ":9181,"absol":9182,"impossible ":9183,"imble":9184,"ar ( ":9185,"estate ":9186,"<unk> <unk> 's ":9187,"also known as ":9188,". In 198":9189,"up to the ":9190,"alists ":9191,"press":9192,"after he ":9193,"remix":9194,"only the ":9195,"him a ":9196,"ed , \" ":9197,"Anonymous ":9198,"point of ":9199,"armour ":9200,"armored ":9201,"Gerard ":9202,"solid ":9203,"1980 ":9204,"1980s ":9205,"grass":9206,"million ( ":9207,"depth ":9208,"episode \" ":9209,"men 's ":9210,"chair ":9211,"County , ":9212," Despite ":9213,"attempting to ":9214,"make the ":9215,"importance ":9216,"waters ":9217,"10th ":9218,"ldn 't ":9219,"notes that ":9220,"racy ":9221,"arrived in ":9222,"replaced ":9223,"consists of ":9224,"valley ":9225,"representative ":9226,"km / h ; ":9227,"wife , ":9228,"separated ":9229,"narrative ":9230,"coast of ":9231,"Johnston ":9232,"ota 2 ":9233,"Treat":9234,"dones":9235,"wind sh":9236,"Applewhite ":9237,"extreme ":9238,"Football League ":9239,"Democratic ":9240,"Venus ":9241,"Tessa ":9242,"Nesbitt ":9243,"Massachus":9244,"eorological ":9245,"Roxas ":9246,"abeth ":9247,"imbledon ":9248,"'ve ":9249,"140 ":9250,"3 , and ":9251,"Baby ":9252,"Cur":9253,"TW":9254,"To ":9255,"Tig":9256,"Win":9257,"Your ":9258,"bat ":9259,"gan":9260,"the @-@ ":9261,"ins to ":9262,"antic":9263,"unusual ":9264,"represents ":9265,"tip ":9266,"and R":9267,"a , the ":9268,"to form ":9269,"es with ":9270,"is in ":9271,"esis ":9272,"of the United States ":9273,"1950 ":9274,"raise ":9275,"library ":9276,"but":9277,"bus ":9278,"seems ":9279,"notic":9280,"had already ":9281,"e of his ":9282,"ing the <unk> ":9283,"ble , ":9284,"' <unk> ":9285,"alities ":9286,"flag":9287,"formerly ":9288,"Indones":9289,"rements ":9290,"renew":9291,"time to ":9292,"annah ":9293,"decad":9294,"cold ":9295,"survey ":9296,"cool":9297,"production of ":9298,"muscar":9299,"Norman ":9300,"airline ":9301,"duties ":9302,"there is a ":9303,"arms ":9304,"1970s ":9305,"warm ":9306,"sponsor":9307,"Guardi":9308,"deleg":9309,". Early ":9310,"kills ":9311,"Formul":9312,"[ ... ":9313,"cannot be ":9314,"partn":9315,"joint ":9316,"peaking ":9317,"glass ":9318,"talk ":9319,"six @-@ ":9320,"USD ":9321,"existence ":9322,"women 's ":9323,"Christopher ":9324,". Initi":9325,"planned ":9326,"catch":9327,"roads ":9328,"reason":9329,"autom":9330,"chorus ":9331,". Under ":9332,"an interview ":9333,"Senate ":9334,"Head":9335,"Ceres ":9336,"regime ":9337,"Maya ":9338,"bombar":9339,"Hospital ":9340,"inhabitants ":9341,"extratropical ":9342,"Isabell":9343,"Somali ":9344,"franchise ":9345,"poorly ":9346,"acknowledg":9347,"leukem":9348,"Formula ":9349," U":9350,"Cat":9351,"Clin":9352,"Des":9353,"Djedkare ":9354,"Free ":9355,"JMA ":9356,"Komb":9357,"Kansas ":9358,"Master ":9359,"N @-@ ":9360,"NBC ":9361,"Tal":9362,"Upp":9363,"Wis":9364,"Well":9365,"bow ":9366,"ceas":9367,"dney ":9368,"fan ":9369,"few":9370,"kick":9371,"master ":9372,"nickn":9373,"oir":9374,"pec":9375,"swi":9376,"ív":9377,", so ":9378,"arrive ":9379,"<unk> . He ":9380,"and M":9381,"in both ":9382,"ing on ":9383,"as being ":9384,"aton ":9385,"icks ":9386,"is to ":9387,"al Komb":9388,"en and ":9389,"admitted ":9390,"with a <unk> ":9391,"( a ":9392,"confid":9393,"ignor":9394,"suit ":9395,"rain":9396,"thew":9397,"apar":9398,"appl":9399,"ation . The ":9400,"to the east ":9401,"ters , ":9402,". Around ":9403,"oody ":9404,"had previously ":9405,"on the ground ":9406,"; a ":9407,"estine ":9408,"pupil":9409,"Marc":9410,"regard ":9411,"eeding ":9412,"related to ":9413,"ize ":9414,"angle ":9415,". Fin":9416,"sigh":9417,"producing ":9418,"1990s ":9419,"Archae":9420,"Anc":9421,"moves ":9422,"considers ":9423,"there was a ":9424,"origin ":9425,"ation of a ":9426,"1942 ":9427,"defending ":9428,"1972 ":9429,"intense ":9430,"ortal Komb":9431,"even though ":9432,"echo":9433,"Frank":9434,"generated ":9435,"designed by ":9436,"global ":9437,"established in ":9438,"doctr":9439,"ordered the ":9440,"track , ":9441,"Kore":9442,"publication ":9443,"Federal ":9444,"Cambridge ":9445,"spacing ":9446,"relationship with ":9447,". One of the ":9448,"weakened ":9449,". Following ":9450,"question ":9451,"prior to ":9452,"favorable ":9453,"debate ":9454,"exhibi":9455,"vessel ":9456,"volume ":9457,"km2 ) ":9458,"Nazi ":9459,"sampl":9460,"Branch ":9461,"resistance ":9462,"stopped ":9463,"substantial ":9464,"candidate ":9465,"severely ":9466,"ortal Kombat ":9467,"7 , and ":9468,"91 ":9469,"AC":9470,"By":9471,"Cathedral ":9472,"Hit":9473,"Jean ":9474,"Kent":9475,"Not":9476,"Ré":9477,"She":9478,"by":9479,"crop":9480,"fresh ":9481,"ig ":9482,"rons ":9483,"vul":9484,"way":9485,"āda ":9486,"inaug":9487,"artw":9488,"alp":9489,"altar":9490,"in 1":9491,"in two ":9492,"in what ":9493,"stal":9494,"\" , the ":9495,"at his ":9496,"emale ":9497,"uscrip":9498,"consu":9499,"consum":9500,"1930 ":9501,"spot":9502,"impos":9503,"persu":9504,"quick ":9505,"eafter ":9506,"shots ":9507,"5 @,@ 000 ":9508,"Stephen ":9509,"2005 , ":9510,"has an ":9511,"committed ":9512,"flat ":9513,". \" H":9514,"ishment ":9515,"merc":9516,"as the \" ":9517,"served as a ":9518,"ongst ":9519,"Compl":9520,"monuments ":9521,"does":9522,"udd":9523,"side , ":9524,"August , ":9525,". Like ":9526," For ":9527,"men were ":9528,"Liber":9529,"vention ":9530,"compete ":9531,"contrac":9532,"Miss ":9533,"part of a ":9534,"Williams ":9535,"respective ":9536,"competitions ":9537,"achieve ":9538,"Ministr":9539,"Moz":9540,"Jerem":9541,"accounts ":9542,"opposite ":9543,"editor ":9544,"electronic ":9545,"treaty ":9546,"Israel":9547,"Research ":9548,"iversal ":9549,"people , ":9550,"Republic of ":9551,"Tenny":9552,"Beauty ":9553,"Bradford ":9554,"watersh":9555,"system":9556,"Clark":9557,"dramatic ":9558,"Rihanna ":9559,"Mexican ":9560,". Simil":9561,"tailed ":9562,"embassy ":9563,"afternoon ":9564,"Oslo ":9565,"Institute of ":9566,"9 , and ":9567,"Av":9568,"Bure":9569,"Gran":9570,"Journ":9571,"Kent ":9572,"Loc":9573,"P @-@ ":9574,"Pagan ":9575,"Wic":9576,"dy , ":9577,"fat":9578,"fea":9579,"gress ":9580,"lose ":9581,"pist":9582,"sung ":9583,"ta , ":9584,"tney ":9585,"uality ":9586,"ym ":9587,"though":9588,", were ":9589,". ) ":9590,". Ch":9591,"<unk> of <unk> ":9592,"er @-@ ":9593,"er , and ":9594,"eness ":9595,"ensur":9596,"sty":9597,"eline ":9598,"eleven ":9599,"\" of ":9600,"of the song ":9601,"of the American ":9602,"ading ":9603,"used on ":9604,"( and ":9605,"convers":9606,". The second ":9607,"in the country ":9608,"determ":9609,"exchange ":9610,"ers are ":9611,"ation for the ":9612,"see the ":9613,"which are ":9614,"2 / ":9615,"Christ ":9616,"; they ":9617,"4 . \n":9618,"s and a ":9619,": 30 ":9620,"age of the ":9621,"comments ":9622,"presence of ":9623," <unk> \n":9624,"would not be ":9625,"panel ":9626,"anny ":9627,"Brian ":9628,"Brien ":9629,"odd ":9630,"angular ":9631,". Federer ":9632,"genous ":9633,"counter @-@ ":9634,"armament ":9635,"choic":9636,"solution ":9637,"Lee ":9638,". Writ":9639,"legi":9640,"metre ":9641," Several ":9642,"burned ":9643,"set up ":9644,"sequenc":9645,"included in the ":9646,"ing , \" ":9647,"record of ":9648,"sett":9649,"skelet":9650,"show 's ":9651,"one of his ":9652,"commanded by ":9653,"Super":9654,"Angle ":9655,"conce":9656,"Richard":9657,"Ell":9658,"proposal ":9659,"civili":9660,"standards ":9661,"learn ":9662,"assistance ":9663,"economy ":9664,"might be ":9665,"bands ":9666,"Op. ":9667,"transferred to ":9668,"seems to ":9669,"served as the ":9670,"toward the ":9671,"opportun":9672,"northward ":9673,"thinking ":9674,"Patrick ":9675,"Walpole ":9676,"willing to ":9677,"having a ":9678,"earthquake ":9679,"capacity ":9680,"Muslim ":9681,"erogative ":9682,"ammunition ":9683,"determine ":9684,"1 , and ":9685,"21st ":9686,"76":9687,"97 ":9688,"ES":9689,"Kong ":9690,"Mov":9691,"NS":9692,"Pine ":9693,"Vis":9694,"Water ":9695,"X ":9696,"ez":9697,"fear ":9698,"hear ":9699,"jump":9700,"lav":9701,"ler 's ":9702,"mass":9703,"males ":9704,"sq ":9705,"tren":9706,"vary ":9707,"zer":9708,"× ":9709,"income ":9710,". Par":9711,"and F":9712,"a single ":9713,"else ":9714,"illy ":9715,"was found ":9716,"rid ":9717,"admir":9718,"agree ":9719,"congreg":9720,". The episode ":9721,"suic":9722,"proper ":9723,"from other ":9724,"it and ":9725,"were made ":9726,"ock , ":9727,"imprison":9728,"shoot ":9729,"3 and ":9730,"3 . \n":9731,"– <unk> ":9732,"scal":9733,"have the ":9734,"180 ":9735,"formed the ":9736,"Marsh":9737,"more <unk> ":9738,"offman ":9739,"when it was ":9740,"Alla":9741,". For":9742,"subst":9743,"1992 ":9744,"triple ":9745,"1981 ":9746,"1985 ":9747,". Re":9748,"1968 ":9749," Other ":9750,"warning ":9751,"understood ":9752,"deliber":9753,"Japan , ":9754,"trees ":9755,". Ex":9756,"loss":9757,"in 2009 ":9758,"closest ":9759,"performing ":9760,"templ":9761,"tempor":9762," To ":9763,"listen":9764,"Barbar":9765,"notably ":9766,"organizations ":9767,"Europe , ":9768,"grown ":9769,"relationships ":9770,"planning ":9771,"anyone ":9772,"victory over ":9773,"express":9774,"acy = = \n":9775,"electric ":9776,"touchdown":9777,"ordinary ":9778,"engineering ":9779,"methods ":9780,"judge ":9781,"family , ":9782,"ucky ":9783,"source of ":9784,"thousand ":9785,"battleships ":9786,"accident ":9787,"Stanley ":9788,"appropriate ":9789,"memory ":9790,"wrong ":9791,"Canterbury ":9792,"01 ":9793,"Band ":9794,"DO":9795,"IM":9796,"Jud":9797,"Lower ":9798,"Mast":9799,"Owen ":9800,"TV":9801,"cells ":9802,"la ":9803,"lad":9804,"s ) ":9805,"s that the ":9806,"orbit ":9807,"and re":9808,"es that the ":9809,"icial ":9810,"\" is a ":9811," , and the ":9812,"diary ":9813,"prove ":9814,"ules ":9815,"ation , and ":9816,"ation = = = \n":9817,"images ":9818,"prey ":9819,"preserv":9820,"predat":9821," = = Rel":9822,"manuscrip":9823,"; in ":9824,"worship ":9825,"ranking ":9826,"has since ":9827,"formul":9828,"remix ":9829,"guid":9830,". It 's ":9831,"son of ":9832,"colour ":9833,"When ":9834,"martial ":9835,"heat ":9836,"United Nations ":9837,"describe ":9838,"any other ":9839,"burning ":9840,"jok":9841,"netic ":9842,"due to a ":9843,"echn":9844,"leading to ":9845,"innov":9846,"allowed to ":9847,"history , ":9848,"statu":9849,"more , ":9850,"Corp":9851,"detail ":9852,"divor":9853,"appointment ":9854,"Warren ":9855,"favour":9856,"observed ":9857,". At the same ":9858,"Palmy":9859,"close to ":9860,"extent ":9861,"pieces ":9862,"conclusion ":9863,"machin":9864,"Egypt ":9865,"musician ":9866,"majority of the ":9867,"printed ":9868,"scholar":9869,"Georgia ":9870,". In addition , ":9871,"injuries ":9872,"want to ":9873,"remark":9874,"scientific ":9875,"specimen ":9876,"batsman ":9877,"dynam":9878,"suspended ":9879,"reviv":9880,"Samuel ":9881,"Sweet ":9882,"custom":9883,"Trujill":9884,"transferred to the ":9885,"verteb":9886,"Life ":9887,"superior ":9888,"guilty ":9889,"goddes":9890,"Back ":9891,"Bron":9892,"Kev":9893,"Link ":9894,"Mel":9895,"Nick ":9896,"Rh":9897,"Row":9898,"eing ":9899,"eth ":9900,"foo":9901,"gli":9902,"tall ":9903,"− ":9904,"erith ":9905,"anch":9906,", then ":9907,"<unk> \" , ":9908,"and A":9909,"and P":9910,"and in ":9911,"and an ":9912,"onder":9913,"er . \n":9914,"a second ":9915,"ing its ":9916,"as much ":9917,"roo":9918,"stock ":9919,"ician ":9920,"ite , ":9921,"was named ":9922,"amp ":9923,"that , ":9924,"evening ":9925,"constitution ":9926,"in the United Kingdom ":9927,"s , such as ":9928,"<unk> , <unk> <unk> , ":9929,"abund":9930,"preh":9931,". Ap":9932,"perim":9933,"times , ":9934,"pois":9935,"2003 , ":9936,"blu":9937,"ritual ":9938,"obvi":9939,"charts ":9940,"aste ":9941,"regiment ":9942,"structural ":9943,"made landfall ":9944,"subjec":9945,"Three ":9946,"dog ":9947,"operates ":9948,"found that ":9949,"1942 , ":9950,"remainder of the ":9951,"1987 ":9952,"drain":9953,"join ":9954,"to replace ":9955,"difference ":9956,". Cl":9957,"candid":9958,"crossed the ":9959,"Adam ":9960,"suffering ":9961,"survive ":9962,"published by ":9963,"painted ":9964,"Organ":9965,"sales ":9966,"met with ":9967,"filming ":9968,"promoted ":9969,"violent ":9970,"speed of ":9971,"Association of ":9972,"railroad ":9973,"majority of ":9974,"interested in ":9975,"Sarajev":9976,"machine gun ":9977,"divided into ":9978,"Baseball ":9979,"journalist ":9980,"exclusively ":9981,"Arabic ":9982,"premiere ":9983,"km2 ":9984,"etts Creek ":9985,"there is no ":9986,"numbered ":9987,"otherwise ":9988,"criminal ":9989,"North Koreans ":9990,"ívar ":9991,"1000 ":9992,"84 ":9993,"Ball ":9994,"CA ":9995,"Four ":9996,"Gold":9997,"Hamp":9998,"Jeff ":9999,"JTW":10000,"My":10001,"S <unk> ":10002,"bay ":10003,"eo ":10004,"fing":10005,"fair":10006,"hot ":10007,"ior":10008,"kgra":10009,"sessions ":10010,"unsuccessful ":10011,"y = = \n":10012,"<unk> ( <unk> ) ":10013,"and to ":10014,"a to ":10015,"a small ":10016,"as its ":10017,"\" in the ":10018,"was still ":10019,"@-@ foot ":10020,"@-@ tailed ":10021,"plus ":10022,"( now ":10023,"1918 ":10024,"ets , ":10025,"seem ":10026,". About ":10027,"perce":10028,"perspective ":10029,"had an ":10030,"tic , ":10031,"recur":10032,"ed by his ":10033,"attend":10034,"Channel ":10035,". In 197":10036,"commenc":10037,"18th century ":10038,"played the ":10039,"interaction ":10040,"internal ":10041,"ress":10042,"What ":10043,"based in ":10044,"\" , while ":10045,"season . \n":10046,"ister of ":10047,"t , which ":10048," In a ":10049,"1997 ":10050,"publisher ":10051,"complex":10052,"factory ":10053,"Anz":10054,"placed in ":10055,"southeastern ":10056,"a further ":10057,"brothers ":10058,"took a ":10059,"underwent ":10060,"state highway ":10061,"Wilde ":10062,"sions of ":10063,"making the ":10064,"attempts ":10065,"north of ":10066,"leads ":10067,"sets ":10068,"England , ":10069,"1930s ":10070,"skull ":10071,"moral ":10072,"nia , ":10073,"went to ":10074,"given the ":10075,"short @-@ ":10076,"camer":10077,"campus ":10078,"hunting ":10079,"Kingdom Hear":10080,"in Britain ":10081,"ernal ":10082,"settlers ":10083,"support of ":10084,"yards ( ":10085,"improve ":10086,"associated with the ":10087,"responsible for the ":10088,"FIA ":10089,"vehicle ":10090,"access to ":10091,"giant ":10092,"Yue Fe":10093,"cross @-@ ":10094,"elements of ":10095,"programme ":10096,"Cardinal @-@ ":10097,"regarding ":10098,"protagonist ":10099,"Management ":10100,"constant ":10101,"biggest ":10102,"Rio de Janeir":10103,"Chelsea ":10104,"temporarily ":10105,"kgraf ":10106,"92 ":10107,"AT":10108,"Dur":10109,"Ful":10110,"Mortal Kombat ":10111,"Ohi":10112,"Other ":10113,"Today ":10114,"Usta":10115,"Wy":10116,"blow":10117,"bishop":10118,"cann":10119,"des the ":10120,"eous ":10121,"gie ":10122,"had":10123,"ky ":10124,"kings ":10125,"needs ":10126,"tomb":10127,"uan ":10128,"wrest":10129,"ár":10130,"ād":10131,"s with ":10132,"inum ":10133,". , ":10134,"<unk> . In ":10135,"ons and ":10136,"enabl":10137,"a ' ":10138,"on 8 ":10139,"in other ":10140,"\" ) , ":10141,"its , ":10142," , who ":10143,"amino ":10144,"even":10145,"with them ":10146,"( D":10147,"condem":10148,". The storm ":10149,"fore":10150,"earning ":10151,"<unk> , \" ":10152,"<unk> , he ":10153,"<unk> , an ":10154,"ounder ":10155," = = Char":10156,"had become ":10157,", and that ":10158,"Stew":10159,"<unk> <unk> . The ":10160,"aves ":10161,"diseas":10162,"dispat":10163,"assess":10164,"fles ":10165,"I have ":10166,"objects ":10167,". Such ":10168,"prerogative ":10169,"pupp":10170," <unk> @-@ ":10171,"charity ":10172,"ations = = \n":10173,"t , but ":10174,"count ":10175,". More ":10176,"cargo ":10177,"ton 's ":10178,"appeared in the ":10179,"years later ":10180,"depending ":10181,". Rob":10182,"outbreak ":10183,"Guard ":10184,"construction of the ":10185,"effic":10186,"leaders ":10187,"barri":10188,"demand ":10189,"excell":10190,"show , ":10191,"compounds ":10192,"version of ":10193,"without the ":10194,"Barrow ":10195,"Administ":10196,"believed ":10197,"2 @.@ 5 ":10198,"camera ":10199,"felt that the ":10200,"homes ":10201,"terminus ":10202,"discovery ":10203,"Sydney ":10204,"saying \" ":10205,"measure ":10206,"Square ":10207,"coup ":10208,"Modern ":10209,"Lords ":10210,"ments of ":10211,"adapt":10212,"fallen ":10213,"Romani ":10214,"Tropical Depression ":10215,"Simone ":10216,"peaked at ":10217,"attracted ":10218,"remarked ":10219,"itarian ":10220,"Campa":10221,"feelings ":10222,"foundation ":10223,"Buil":10224,"praise ":10225,"agnos":10226,"Typhoon ":10227,"Everglades ":10228,"Veronica ":10229,"Plunketts Creek ":10230,"satellite ":10231,"Ustaš":10232,"31 , ":10233,"Dak":10234,"Educ":10235,"Hotel ":10236,"Jif":10237,"ML":10238,"Mongol":10239,"Pul":10240,"crisis ":10241,"eer":10242,"hat":10243,"kitsune ":10244,"oing ":10245,"odi":10246,"pac":10247,"yria ":10248,"s <unk> ":10249,"t . \n":10250,"inde":10251,"inher":10252,"and one ":10253,"ena ":10254,"a week ":10255,"is un":10256,"al of the ":10257,"useful ":10258,"with him ":10259,"cher ":10260,"in the town ":10261,"1916 ":10262,"s , <unk> ":10263,") were ":10264,"etown ":10265,"spoke ":10266,"viv":10267,"mang":10268,"blocks ":10269,"sections ":10270,"from the album ":10271,"@,@ 500 ":10272,"alien ":10273,"ruli ":10274,"as a result of ":10275," <unk> - ( ":10276,"rememb":10277,"renov":10278,"tend ":10279,"ia 's ":10280,"tissu":10281,"by the <unk> ":10282,"build":10283,"release , ":10284,"withdrawn ":10285,"Carol ":10286,"the <unk> of the ":10287,"said \" ":10288,"continuing ":10289,"World Tour ":10290," Many ":10291,"because he ":10292,"per hour ":10293,"April , ":10294,"north of the ":10295,"head coach ":10296,"use the ":10297,"National Forest ":10298,"City , ":10299,"Herg":10300,"issued ":10301,"compet":10302,"Interstate ":10303,"equal ":10304,"lead to ":10305,"competit":10306,"mention ":10307,"freedom ":10308,"Palestine ":10309,"involved in the ":10310,"planned to ":10311,"Earl ":10312,"God of War ":10313,"argued that ":10314,"studio album ":10315,"decision to ":10316,"finishing ":10317,"ratings ":10318,"Keam":10319,"industri":10320,"classified ":10321,"ography = = \n":10322,"moments ":10323,". Most of the ":10324,"Hungarian ":10325,"strategic ":10326,"conventional ":10327,"Calver":10328,"eighth ":10329,"lecruis":10330,"message ":10331,"Don 't ":10332,"apole":10333,"Communist ":10334,"jackrab":10335,"Queensland ":10336,"childhood ":10337,"lbw ":10338,"Upper ":10339,"JTWC ":10340,"Hok":10341,"Jac":10342,"Low":10343,"Mu":10344,"ND":10345,"Six":10346,"Wrestling ":10347,"X @-@ ":10348,"Yug":10349,"bon ":10350,"beral ":10351,"crown ":10352,"ege ":10353,"gor":10354,"ie , ":10355,"kan 's ":10356,"lake ":10357,"sun":10358,"sunk ":10359,"temp":10360,"vati":10361,"weg":10362,"wood":10363,"eries ":10364,"eratop":10365,"orn ":10366,"<unk> — ":10367,"tifi":10368,"on 15 ":10369,"attr":10370,"eli":10371,"itz":10372,"is still ":10373,"@-@ out ":10374,"beaut":10375,"ation with ":10376,"ime ":10377,"ated and ":10378," = = Leg":10379," = = Person":10380,", and he ":10381,"reception = = \n":10382,"on the album ":10383,"ed by an ":10384,"their <unk> ":10385,"<unk> <unk> ) , ":10386,"have also ":10387,"desert ":10388,"mill":10389,"guerr":10390,"servative ":10391,"end , ":10392,"bass ":10393,"rell ":10394,"genre ":10395,"subspecies ":10396,"complic":10397,"was the only ":10398,"Leagu":10399,"mun ":10400,"week , ":10401,"cult ":10402,"culmin":10403,"sequel ":10404,"need to ":10405,"if they ":10406,"corn ":10407,"themes ":10408,"Persian ":10409,"1939 ":10410,"mainland ":10411,"defeating ":10412,"role of ":10413,"Activision ":10414,"moderate ":10415,"thereafter ":10416,"ographic ":10417,"Supreme ":10418,"similar to the ":10419,"suggests that ":10420,"concern ":10421,"figur":10422,"Order ":10423,"’ t ":10424,"honor ":10425,"leaving the ":10426,"employment ":10427,"whom he ":10428,"amount ":10429,"NY 38 ":10430,"Battle of <unk> ":10431,"Point ":10432,"section with ":10433,"dinosaur":10434,"driving ":10435,"enjam":10436,"leave the ":10437,"Township ":10438,"survivors ":10439,"schedule ":10440,"Trib":10441,"strongest ":10442,"walk ":10443,"seeking ":10444,"tunnel ":10445,"ethnic ":10446,"safe ":10447,"characteristic":10448,"trading ":10449,"emphasis ":10450,"specimens ":10451,"Hot 100 ":10452,"Jupiter ":10453,"ekān":10454,"Arthur":10455,"Arthur ":10456,"faith ":10457,"aggressive ":10458,"Jesus ":10459,"Classic ":10460,"Premier League ":10461,"Crazy in Love \" ":10462,"ythosaurus ":10463,"Protestant ":10464,"Allah ":10465,"Yugos":10466," V":10467," 3 ":10468,"74 ":10469,"83 ":10470,"B @-@ ":10471,"CD ":10472,"Dom":10473,"Greg":10474,"Lam":10475,"La <unk> ":10476,"Lester ":10477,"Mid":10478,"Moon ":10479,"Merc":10480,"Rick":10481,"aust ":10482,"mamm":10483,"needed to ":10484,"ring":10485,"won a ":10486,"ths ":10487,"erine ":10488,"t ( ":10489,", he was ":10490,"<unk> had ":10491,"<unk> @-@ <unk> ":10492,"reb":10493,"tie ":10494,"a year ":10495,"ectr":10496,"ecraft ":10497,"omp":10498,"amongst ":10499,"rian ":10500,". The new ":10501,". The team ":10502,"in the series ":10503,"e , who ":10504,"fortun":10505,"progress ":10506,"ted for ":10507,"it has ":10508,"predomin":10509,"ity , ":10510,"recip":10511,"shr":10512,"shad":10513,"alive ":10514,"formed in ":10515,"peti":10516,"er , a ":10517," An ":10518,"merely ":10519,"only two ":10520,"decid":10521,"ations . \n":10522,"monarch ":10523,"titud":10524,"ologist":10525,"Paraly":10526,"facing ":10527,"ed , with ":10528,"day , the ":10529,"invad":10530,"transportation ":10531,"placement ":10532,"strip ":10533,"striking ":10534,"u and ":10535,"prime ":10536,"1966 ":10537,"grave ":10538,". They also ":10539,"mix ":10540,"during which ":10541,"burial ":10542,"buried ":10543,"Canal ":10544,"south of ":10545,"group 's ":10546,"caused the ":10547,"drin":10548,"history of the ":10549,"affili":10550,"felt the ":10551,"Grade ":10552,"prison ":10553,"away from ":10554,"concerts ":10555,"ed from a ":10556,"failed ":10557,"artificial ":10558,"father , ":10559,"destroyers ":10560,". For example , ":10561,"fifteen ":10562,"saying that ":10563,"Eddie ":10564,"penet":10565,"meaning \" ":10566,"mbar ( ":10567,"despite the ":10568,"recognis":10569,"meetings ":10570,"occasions ":10571,"umpty ":10572,"retirement ":10573,"Shakespear":10574,"fact that ":10575,"summer of ":10576,"mixed review":10577,"difficulties ":10578,"June , ":10579,"Templ":10580,"Delaware ":10581,"column ":10582,"architectural ":10583," There are ":10584,"Defence ":10585,"fixed ":10586,"boundary ":10587,"household ":10588,"dialogue ":10589,"fashion ":10590,"Heavyweight ":10591,"NC State ":10592,"Dominican ":10593,"Lorenzo ":10594,"jazz ":10595,"pyramid ":10596,"Hall of Fame ":10597,"holiday ":10598,"muscaria ":10599,"[ ... ] ":10600,"doesn 't ":10601,"Anzac":10602,"Paralymp":10603,"73 ":10604,"AML ":10605,"Ben ":10606,"Categ":10607,"Dav":10608,"Nam":10609,"Pow":10610,"Pope ":10611,"Ret":10612,"Sn":10613,"Sonic ":10614,"Up ":10615,"Vol":10616,"Wall":10617,"Writ":10618,"bill":10619,"cro":10620,"cali":10621,"faster ":10622,"gle ":10623,"huge ":10624,"ires ":10625,"ka ":10626,"kins ":10627,"sak":10628,"swe":10629,"tonn":10630,"vin":10631,"orm":10632,"ards , ":10633,"arc ":10634,"<unk> by the ":10635,"ensure ":10636,"in Ireland ":10637,"ing on the ":10638,"to this ":10639,"to go ":10640,"ics and ":10641,"\" \n":10642,"\" ; ":10643,"chro":10644,"chess ":10645,"chanc":10646,"( I":10647,"entary ":10648,"osex":10649,"19th century , ":10650,"liam":10651,"life":10652,"liked ":10653,"prosec":10654,"from an ":10655,"percent":10656,"aine ":10657,"uggl":10658,"Stef":10659,"contest ":10660,"desir":10661,"disper":10662,"otyp":10663,"year , the ":10664,"assembly ":10665,"flag ":10666,"format ":10667,". He then ":10668,"decades ":10669,"colleagu":10670,"ized the ":10671,"tox":10672,". Four ":10673," , and was ":10674,"counties ":10675,"factor":10676,"point , ":10677,"tries to ":10678,"1944 ":10679,"defens":10680,"ants , ":10681,"five years ":10682,"disc ":10683," Since ":10684,"men , ":10685,"Lithu":10686," Dylan ":10687,"Forces ":10688,"sensi":10689,"magnit":10690,"1 @.@ 2 ":10691,"denly ":10692,"races ":10693,"how the ":10694,"Common ":10695,"squad":10696,"country 's ":10697,"mixture of ":10698,"leaves ":10699,"Somali":10700,"Hornung ":10701,"handob":10702,"Philip ":10703,"breaking ":10704,"levels ":10705,"principl":10706,"potentially ":10707,"transit ":10708,"engagement ":10709,"distinctive ":10710,"drug ":10711,"behaviour ":10712,"Dream":10713,"mobile ":10714,"assassination ":10715,"Songs ":10716,"conspiracy ":10717,"evertheless , ":10718,"wasn 't ":10719,"hundreds of ":10720,"beautiful ":10721,". Further":10722,"wind shear ":10723,"árqu":10724,"Campaign ":10725,"Category ":10726,"Lithuan":10727,"Detro":10728,"Eagle ":10729,"G ":10730,"Gary ":10731,"Is ":10732,"King of ":10733,"Lau":10734,"LIM":10735,"OC ":10736,"Origin":10737,"OK ":10738,"Pre":10739,"Power ":10740,"Race ":10741,"Sab":10742,"Ward ":10743,"Women ":10744,"Wimbledon ":10745,"Yel":10746,"aun":10747,"ain the ":10748,"cemetery ":10749,"dwar":10750,"hot":10751,"jury ":10752,"kingdom ":10753,"map ":10754,"neath ":10755,"sand ":10756,"trough ":10757,"vac":10758,"x , ":10759,"ía M":10760,"e a ":10761,"the British ":10762,", for ":10763,", after ":10764,"ori":10765,"artis":10766,"revis":10767,"report":10768,"and that ":10769,"in C":10770,"ing = = \n":10771,"stac":10772,"at this ":10773,"or in ":10774,"ection of ":10775,"omur":10776,"was released ":10777,"sided ":10778,"@-@ at @-@ ":10779,"wider ":10780,"add ":10781,"adequ":10782,"usch ":10783,"beaten ":10784,". The company ":10785,"sud":10786,"fore , ":10787,"<unk> , or ":10788,"exac":10789,"seek ":10790,"permission ":10791,"Stu":10792,"Child ":10793,"first @-@ ":10794,"contest":10795,"s of <unk> ":10796,": A ":10797,"disaster ":10798,". <unk> also ":10799,"after her ":10800,"crim":10801,"players , ":10802,"y , but ":10803," As the ":10804,"motiv":10805,". It is a ":10806,"march ":10807,"about his ":10808,"selection ":10809,"coin":10810,"products ":10811,"capit":10812,"steam":10813,"accept ":10814,"forces were ":10815,"place of ":10816,"1989 ":10817,"is the only ":10818,"1973 ":10819,"ennium ":10820,"burn":10821,"advoc":10822,"join the ":10823,"echism ":10824,"treated ":10825,") and a ":10826,"Prof":10827,"wrote that the ":10828,". She also ":10829,"mainten":10830,"residence ":10831,"role in ":10832,"communities ":10833,"match , ":10834,"12th ":10835,"Poland ":10836,"Police ":10837,"cross":10838,"threw ":10839,". There were ":10840,"market":10841,"talking ":10842,"2nd Division ":10843,"femal":10844,"2007 . \n":10845,"described it ":10846,"Korean ":10847,"supporters ":10848,"controll":10849,"synag":10850,"happen":10851,"supervis":10852,"Award for Best ":10853,"Player of the ":10854,"frequent ":10855,"scholar ":10856,"enemies ":10857,"@-@ yard line ":10858,"morning of ":10859,"Garc":10860,"Museum of ":10861,"nationally ":10862,"graphic ":10863,"slide ":10864,"concentrated ":10865,"Tennes":10866,"intensified ":10867,"rescue ":10868,"11th ":10869,"assigned to the ":10870,") – Cardinal @-@ ":10871,"struggle ":10872,"adults ":10873,"reputation ":10874,"exercis":10875,"made of ":10876,"harbour ":10877,"fungus ":10878,"exhaust":10879,"Marlborough ":10880,"Elizabeth ":10881,"RELIM":10882,"Massachusetts ":10883,"Formula One ":10884,"Wiscons":10885,"árquez ":10886,"99 ":10887,"AI":10888,"Asi":10889,"Ali":10890,"Dean ":10891,"DAG":10892,"Found":10893,"Fern":10894,"Imag":10895,"Joy":10896,"La ":10897,"PA ":10898,"Tower ":10899,"band":10900,"bright ":10901,"hl ":10902,"hull ":10903,"ieck":10904,"lun":10905,"lection ":10906,"pati":10907,"rag":10908,"śni":10909,"thi":10910,"the best ":10911,"ins":10912,"anekān":10913,"ed into ":10914,"rever":10915,"and their ":10916,"and later ":10917,"onia ":10918,"a Man ":10919,"on 3 ":10920,"in fav":10921,"to move ":10922,"to see ":10923,"es on ":10924,"ouston ":10925,"\" L":10926,"\" that ":10927,"ild":10928,"was able to ":10929," , he ":10930,"owieck":10931,"of the series ":10932,"@-@ mile ( ":10933,"that had been ":10934,"diet ":10935,"( which ":10936,"deter":10937,"ation is ":10938,"clin":10939,"cles ":10940,"sper":10941,"spending ":10942,"impression ":10943," = = = = \n":10944,"parish ":10945,"shell":10946,"shop ":10947,"umental ":10948,"attained ":10949,"scar ":10950,": a ":10951,"secretary ":10952,"disp":10953,"otten ":10954,"they could ":10955,". <unk> the ":10956,"creative ":10957,"phy ":10958,"Who ":10959,"northeastern ":10960,"and <unk> ( ":10961,"helmet ":10962,"substitute ":10963,"them , ":10964,"— a ":10965,"calling it ":10966,"according to the ":10967,"rigg":10968,"belt ":10969,"several other ":10970,"Construc":10971,"year . \n":10972,"lobe ":10973,"long , ":10974,"biograph":10975,". Rec":10976,"1965 ":10977,"Islam":10978,"North Carolina ":10979,"Guine":10980,"Show ":10981,"third @-@ ":10982,"it is not ":10983,"similarly ":10984,"closer ":10985,"patrol ":10986,"novel , ":10987,"Servic":10988,". There is ":10989,"announced ":10990,"oky":10991,"consistent ":10992,"ships , ":10993,"becoming the ":10994,"looks ":10995,"USS ":10996,"Electr":10997,"indicating ":10998,"materials ":10999,"lived in ":11000,"Track ":11001,"programs ":11002,"spacecraft ":11003,"celebr":11004,"celebrated ":11005,"commander of the ":11006,"Derry ":11007,"numbers of ":11008,"revealed that ":11009,"function ":11010,"exposure ":11011,"Ont":11012,"circulation ":11013,"laid down ":11014,"Soviet Union ":11015,"Alice in Chains ":11016,"dismissed ":11017,"friendly ":11018,"riginally ":11019,"Rangers ":11020,"Castle ":11021,"implement":11022,"Labour ":11023,"delivery ":11024,"Meyerbeer ":11025,"accurate ":11026,"simultaneously ":11027,"pressure of ":11028,"NCAA ":11029,". Upon ":11030,"Anglo @-@ ":11031,"Outstanding ":11032,"Bureau ":11033,"ía Márquez ":11034,"śniowieck":11035," In":11036,"978 ":11037,"Bah":11038,"Cul":11039,"D @-@ ":11040,"Gard":11041,"Imp":11042,"Justice ":11043,"Kann":11044,"NL":11045,"Tun":11046,"Tim ":11047,"Techn":11048,"Will ":11049,"ception ":11050,"kers ":11051,"oard ":11052,"pick ":11053,"pounds ":11054,"saw":11055,"wich ":11056,"thor":11057,"inflic":11058,"anag":11059,"ori ":11060,"<unk> with the ":11061,"<unk> in a ":11062,"of <unk> and ":11063,"ties and ":11064,"eng ":11065,"enthu":11066,"to work ":11067,"as far ":11068,"stro":11069,"ichael ":11070,"at B":11071,"at S":11072,"al <unk> ":11073,"eck ":11074,"adm":11075,"plum":11076,"'s most ":11077,"with three ":11078,"bey ":11079,"entally ":11080,"in the region ":11081,"provo":11082,"ation = = \n":11083,"hidden ":11084,"ete":11085,"imperial ":11086,"terrain ":11087,", and is ":11088,"umul":11089,"pot":11090,"ders , ":11091,"6 . \n":11092,"contex":11093,"her own ":11094,"@.@ 4 ":11095,"section of the ":11096,"es , a ":11097,"pressed ":11098,". <unk> is ":11099,"er , but ":11100,"remove ":11101,"gros":11102,"would later ":11103,"saur":11104,"made up ":11105,"subjects ":11106,"released a ":11107,"Parvati":11108,"teamm":11109,"facility ":11110,"missed ":11111,"single , ":11112,"trouble ":11113,"highways ":11114,"used as ":11115,"battlecruis":11116,"Wilson ":11117,"because it ":11118,"name was ":11119,"treas":11120,"others , ":11121,"use of the ":11122,"if he ":11123,"German and ":11124,"bari ":11125,"sens":11126,"easy ":11127,"in 2005 ":11128,"Viet ":11129,"songs , ":11130,"patri":11131,"spiritual ":11132,"denied ":11133,"rounds ":11134,"3 @.@ 5 ":11135,"example of ":11136,"composed ":11137,"Magdal":11138,"focused ":11139,"characteriz":11140,"situated ":11141,"Phillies ":11142,"print ":11143,"Meteorological ":11144,"theatrical ":11145,"Croatia ":11146,"expected to ":11147,"FA Cup ":11148,"Simon ":11149,"qualified ":11150,"vessels ":11151,"opponent ":11152,"encourag":11153,"sought to ":11154,"architecture ":11155,"Rocky ":11156,"departure ":11157,"throne ":11158,"@-@ inch ( ":11159,"segment ":11160,"Jonathan ":11161,"Bono ":11162,"resourc":11163,"Qedar":11164,"New Jersey ":11165,"videos ":11166,"amateur ":11167,"ebrask":11168,"Guardian ":11169,"Réunion ":11170,"Israeli ":11171,"Link Road ":11172,"enthusi":11173,"'ll ":11174,".C":11175,"87 ":11176,"; \n":11177,"A.":11178,"Budd":11179,"F @-@ ":11180,"Gwen ":11181,"Ho":11182,"Lanc":11183,"Niel":11184,"Ur":11185,"Wright ":11186,"Wander":11187,"ek , ":11188,"fate ":11189,"fox ":11190,"festival ":11191,"hang ":11192,"ke of ":11193,"ki ":11194,"mel ":11195,"oted ":11196,"ot , ":11197,"tone ":11198,"vast ":11199,"well , ":11200,"orous ":11201,"art , ":11202,"<unk> at the ":11203,"align":11204,"on 14 ":11205,"in one ":11206,"in <unk> and ":11207,"in 2010 ":11208,"to him ":11209,"\" for ":11210,"is and ":11211,"illegal ":11212,"assu":11213,"@-@ minute ":11214,"wig":11215,"plas":11216,"used a ":11217,"using a ":11218,"by an ":11219,"diagnos":11220,"in the mid @-@ ":11221,"lea":11222,"earth ":11223,"<unk> , with ":11224,"dead":11225,"aboard ":11226,"cloud ":11227,"terr":11228,"ffield ":11229,"ayne ":11230,"eather ":11231,"1 million ":11232,"shoulder ":11233,"so much ":11234,"St. L":11235,"3 : ":11236,"– 0 ":11237,"boil":11238,"ine 's ":11239,"ed in his ":11240,"secre":11241,"section of ":11242,"inclusion ":11243,"ting a ":11244,"achute ":11245,"ates the ":11246,"ities and ":11247,"starring ":11248,"tions to ":11249,"ship 's ":11250,"game was ":11251,"ustro @-@ ":11252,"counc":11253,"country , ":11254,"pole ":11255,"Anton":11256,"movements ":11257,"invent":11258,"calls ":11259,"armies ":11260,"armoured ":11261,"engines ":11262,"grey ":11263,"work was ":11264,"operational ":11265,"years . \n":11266,"eyes ":11267,"20 @,@ 000 ":11268,"biographer ":11269,"1967 ":11270,"aza ":11271,"undertaken ":11272,"people were ":11273,"men and ":11274,"York":11275,"aide ":11276,"as well as a ":11277,"Sher":11278,"wrote the ":11279,"purchase ":11280,"reading ":11281,"1 @.@ 6 ":11282,"involving ":11283,"spirit ":11284,"extensively ":11285,"support of the ":11286,"commandment ":11287,"occurs ":11288,"William":11289,"detected ":11290,"night , ":11291,"artist":11292,"can be seen ":11293,". Jord":11294,"Brigade , ":11295,"campaign":11296,"created a ":11297,"making it ":11298,"landscap":11299,"Palace ":11300,"crash ":11301,"level of ":11302,"prepare ":11303,"composed of ":11304,"Russi":11305," All ":11306,"Valk":11307,"focused on ":11308,"removed ":11309,"inspired by ":11310,"Stories ":11311,"platoon ":11312,"discussion ":11313,"oxy":11314,"Court of ":11315,"witzer":11316,"top @-@ ":11317,"properties ":11318,"girl":11319,". Unlike ":11320,"influenced by ":11321,"visitors ":11322,"Louis ":11323,"Simpson ":11324,"Germany , ":11325,"climate ":11326,"graduate ":11327,"whereas ":11328,"BCE ":11329,"Argentina ":11330,"shipping ":11331,"Shiva ":11332,"renamed ":11333,"nurse ":11334,"Rolling Stone ":11335,"ropolitan ":11336,"municipal ":11337,"Roger ":11338,"institutions ":11339,"Children ":11340,"virtually ":11341,"psych":11342,"civilians ":11343,"Kingdom Hearts ":11344,"Hokies ":11345,"04 ":11346,"Ash":11347,"Be ":11348,"Bay":11349,"Cec":11350,"Cong ":11351,"C @-@ ":11352,"Caes":11353,"Ep":11354,"Hell":11355,"Lo":11356,"Natur":11357,"Napole":11358,"Nebrask":11359,"Rem":11360,"Raff":11361,"RNA ":11362,"Run ":11363,"SA ":11364,"Ton":11365,"Vul":11366,"Web":11367,"lap":11368,"ok ":11369,"ring to ":11370,"zeg":11371,"ed with a ":11372,"ore":11373,"aret ":11374,"<unk> from the ":11375,"reconstruction ":11376,"on 20 ":11377,"on 25 ":11378,"in all ":11379,"rog":11380,"ice , ":11381,"acru":11382,"@-@ 0 ":11383,"rie ":11384,"adhe":11385,"'s G":11386,"agand":11387,"evali":11388,". The route ":11389,"1915 ":11390,"ram ":11391,"rap ":11392,"ration of ":11393,"prohi":11394,"it has been ":11395,"ex @-@ ":11396,"expression ":11397,"ation in ":11398,"spend ":11399,"ocaust ":11400,"ated , ":11401,"5 @,@ ":11402,"mann ":11403,"3 million ":11404,"Chevali":11405,"two <unk> ":11406,"@.@ 7 ":11407,"and the other ":11408,"vertical ":11409,"feels ":11410,"pedi":11411,"gust":11412,"moti":11413,"ft ( ":11414,"kness ":11415,". Bur":11416,"surrender ":11417,"sati":11418,"structur":11419,"starter ":11420,"sub @-@ ":11421,"many other ":11422,"can 't ":11423,"heim ":11424,"continental ":11425,"work on the ":11426,"sole ":11427,". On July ":11428,"grass ":11429,"famili":11430,"understand ":11431,"Guide ":11432,"laugh":11433,"Library ":11434,"Plac":11435,"place in the ":11436,"head of the ":11437,"generation ":11438,"Greg ":11439,"crake ":11440,"Herzeg":11441,"tropical wave ":11442,"streak ":11443,"magnetic ":11444,"deni":11445,"front":11446,"Canada , ":11447,"members of ":11448,"personally ":11449,"personality ":11450,"news ":11451,"Space ":11452,"children 's ":11453,"profile ":11454,"having been ":11455,"<unk> , <unk> , <unk> , <unk> , ":11456,"figure":11457,"week of ":11458,"Turks ":11459,"extinc":11460,"navig":11461,"preci":11462,"entering the ":11463,"Veracru":11464,"synthes":11465,"casting ":11466,"participate ":11467,"commission ":11468,"music , ":11469,"musicians ":11470,"Emmy ":11471,"everyone ":11472,"weapon ":11473,"detailed ":11474,"weekly ":11475,"emergency ":11476,"days , ":11477,"High School ":11478,"Strand ":11479,"environmental ":11480,"instruments ":11481,"fountain ":11482,"mechanical ":11483,"battleship ":11484,"nature of the ":11485,"sacred ":11486,"reinforcements ":11487,"enter the ":11488,"descend":11489,"Final Fantasy ":11490,"retreat ":11491,"rooms ":11492,"Native American ":11493,"McCartney ":11494,"rhythm ":11495,"Gallery ":11496,"New York , ":11497,"anticip":11498,"Ancient ":11499,"Sarajevo ":11500,"Building ":11501,"@-@ at @-@ home ":11502,"Viet Cong ":11503,"Valkyria ":11504,"Herzegov":11505,".e":11506,"112":11507,"5 \n":11508,"Aston ":11509,"Austro @-@ ":11510,"Bank ":11511,"Broadway ":11512,"Have ":11513,"Jay ":11514,"Jason ":11515,"Later ":11516,"Pap":11517,"Patt":11518,"Rhy":11519,"Sav":11520,"ce , ":11521,"cave ":11522,"dor":11523,"gh":11524,"hall ":11525,"mon ":11526,"ms , ":11527,"mate ":11528,"pione":11529,"topp":11530,"wrec":11531,"wish ":11532,"yd ":11533,"oral ":11534,"and are ":11535,"on 11 ":11536,"on 27 ":11537,"in Australia ":11538,"to build ":11539,"to keep ":11540,"as many ":11541,"iland ":11542,"at all ":11543,"was one of the ":11544,"sit ":11545,"@-@ American ":11546,"dimen":11547,"eved ":11548,"with some ":11549,"bed":11550,"( P":11551,"( born ":11552,"osp":11553,"1913 ":11554,"compromis":11555,"<unk> , <unk> , and ":11556,"it . The ":11557,"appreci":11558,"image of ":11559," = = Com":11560,"twenti":11561,"all three ":11562,"2004 , ":11563,"<unk> <unk> \" ":11564,"body":11565,"rane ":11566,"they have ":11567,"alition ":11568,". <unk> ( ":11569,"after its ":11570,"creek ":11571,") , <unk> ":11572,") , but ":11573,"y , which ":11574,"center of ":11575,"moon ":11576,". Bar":11577,"resolution ":11578,"colour":11579,"ations were ":11580,"coal ":11581," In 199":11582,"tivity ":11583,"before he ":11584,"stead":11585,"it was a ":11586,"factor ":11587,"no @-@ ":11588,"visional ":11589,"smen ":11590,"small , ":11591,"developed a ":11592,"troubl":11593,"solar ":11594,"1943 ":11595,"describes the ":11596,"priest ":11597,"defend ":11598,"metres ":11599,"1971 ":11600,"John <unk> ":11601,", which is ":11602,"<unk> of The ":11603,"warships ":11604,"17th century ":11605,"somtav":11606,"Country ":11607,". Event":11608,"courts ":11609,"explic":11610,"corner ":11611,"caused by ":11612,"held a ":11613,"issue of ":11614,"make a ":11615,"home to ":11616,"in 2007 ":11617,"destin":11618,"sugges":11619,"affair":11620,". During his ":11621,"therap":11622,"Advent":11623,"talks ":11624,"introduction ":11625,"survived ":11626,"1 @,@ <unk> ":11627,"flew ":11628,"average of ":11629,"Palestin":11630,"No. 1 ":11631,"industr":11632,"Turn":11633,"near <unk> ":11634,"centuries ":11635,"tics = = \n":11636,"Russia ":11637,"devast":11638,"length of ":11639,"business":11640,"reduced ":11641,"meaning ":11642,"inspired ":11643,"occasion ":11644,"participated in the ":11645,"Glad":11646,"charges ":11647,"question":11648,"to make the ":11649,"whilst ":11650,"whether the ":11651,"details ":11652,"distribution ":11653,"distributed ":11654,"walking ":11655,"FIFA ":11656,"declined ":11657,"centim":11658,"feeling ":11659,"O 'Brien ":11660,"criticized the ":11661,"Butler ":11662,"Swedish ":11663,"Santa ":11664,"Iraq ":11665,"Banai ":11666,"witness":11667,"Territory ":11668,"noisy miner ":11669,"infrastructure ":11670,"embarked ":11671,"Catechism ":11672,"artwork ":11673,"styles ":11674,"perceiv":11675,"Ohio ":11676,"NDH ":11677,"deterior":11678,"Asian ":11679,"Dota 2 ":11680,"Fur":11681,"Mand":11682,"Nel":11683,"Night":11684,"Of ":11685,"Rid":11686,"Youth ":11687,"bid":11688,"brick ":11689,"cy ":11690,"card ":11691,"cous":11692,"hP":11693,"hyp":11694,"hurrican":11695,"kin ":11696,"rator ":11697,"sely ":11698,"sounds ":11699,"tab":11700,"you":11701,"eria ":11702,"insec":11703,", in the ":11704,", while the ":11705,"<unk> . ":11706,"als of ":11707,"of G":11708,"of St":11709,"ti ":11710,"a more ":11711,"on 18 ":11712,"on 28 ":11713,"on 22 ":11714,"in several ":11715,"in 12":11716,"in Japan ":11717,"to meet ":11718,"as possible ":11719,"rosaur":11720,"stell":11721,"eler":11722,"urn ":11723,"was then ":11724,"was forced to ":11725,"by American ":11726,". The main ":11727,"thetic ":11728,") was a ":11729,"exit ":11730,"ounding ":11731,"ett":11732,"struggl":11733,"umn ":11734,"ong Kong ":11735,"atters ":11736,"attend ":11737,"worn ":11738,". In 19":11739,". In 195":11740,"@.@ 8 ":11741,"2016 , ":11742,"shift ":11743,"at the time , ":11744,"illust":11745,"alist":11746,". He is ":11747," = = = Early ":11748,". It has been ":11749,"time and ":11750,"ongoing ":11751,"Alber":11752,"followers ":11753,"name , ":11754,"mathem":11755,"teenth ":11756,"then @-@ ":11757,"Andre":11758,"known as \" ":11759,"album was ":11760,"period":11761,"success , ":11762,"began the ":11763,"American Beauty ":11764,"ceratop":11765,". On August ":11766,"1948 ":11767,"officers and ":11768,"back of the ":11769,"1978 ":11770,"five @-@ ":11771,"South Africa ":11772,"generals ":11773,"India , ":11774,"Prot":11775,"Charlot":11776,"study of ":11777,"1950s ":11778,"Geoff ":11779,"in 2008 ":11780,"total":11781,"guns were ":11782,"eventual ":11783,"Corythosaurus ":11784,"night of ":11785,"drawing ":11786,"1 @,@ 500 ":11787,"garrison ":11788,"becoming a ":11789,"radiation ":11790,"commentary ":11791,"described as \" ":11792,"features a ":11793,"download":11794,"in Los Angel":11795,"settlements ":11796,"First World War ":11797,"sort of ":11798,"Infantry Regiment ":11799,"2 – 0 ":11800,"elements of the ":11801,"afterwards ":11802,"engineer ":11803,"response to the ":11804,"possess":11805,"batteries ":11806,"dedicated to ":11807,"Enterprise ":11808,"Singles ":11809,"ironclad":11810,"facilit":11811,"cruiser ":11812,"Matt ":11813,"collapse ":11814,"dangerous ":11815,"debuted at number ":11816,"Bolívar ":11817,"Gulf of Mexico ":11818,"Human ":11819,"focus on ":11820,"component ":11821,"positive reviews from ":11822,"spoken ":11823,"Swiss ":11824,"Summer Olymp":11825,"Ryan ":11826,"equipped with ":11827,"utiliz":11828,"universi":11829,"elaborate ":11830,"SBN 978 ":11831,"Aniston ":11832,"Ministry of ":11833,"Jacob":11834,"liamentary ":11835,"Islamic ":11836,". Eventually ":11837,"stellar ":11838,"23rd ":11839,"AP":11840,"Awards , ":11841,"FRELIM":11842,"Hy":11843,"Heb":11844,"Mun":11845,"Most ":11846,"Pot":11847,"Ra":11848,"Sm":11849,"Sel":11850,"Snow ":11851,"Terr":11852,"byp":11853,"bank":11854,"ball , ":11855,"driver ":11856,"duty ":11857,"fish":11858,"fox":11859,"fishing ":11860,"ho ":11861,"non":11862,"obl":11863,"sang ":11864,"tub":11865,"vs":11866,"veter":11867,"s to the ":11868,"thrown ":11869,", with a ":11870,"orres ":11871,"resigned ":11872,"er than ":11873,"on The ":11874,"on 17 ":11875,"in many ":11876,"in particular ":11877,"to that ":11878,"to produce ":11879,"stun":11880,"stery ":11881,"icity ":11882,"icia ":11883,"elic ":11884,"an <unk> , ":11885,"siege ":11886,"ride ":11887,"that 's ":11888,"that they were ":11889,"for three ":11890,"beam ":11891,"osity ":11892,"osley ":11893,"raids ":11894,"his career ":11895,"compreh":11896,") in the ":11897,"<unk> , was ":11898,"exact ":11899,"ounted ":11900,". Along ":11901,"recep":11902,"shop":11903,"2 . \n":11904,"ings , and ":11905,"out to ":11906,"Stal":11907,"attor":11908,"6 @,@ ":11909,"ogu":11910,". In January ":11911,"story , ":11912,"rants ":11913,"up and ":11914,"flan":11915,"Inv":11916," <unk> was ":11917,"phone ":11918,". Over":11919,"most important ":11920,"essay ":11921,"sevent":11922,"region":11923,"ancest":11924,"starr":11925,"stars , ":11926,"begins to ":11927,"way of ":11928,"Arsenal ":11929,"Norway ":11930,"called a ":11931,"developed by ":11932,"arious ":11933,"could have ":11934,"solely ":11935,"life of ":11936,"Leigh ":11937,"1945 ":11938,"signed a ":11939,"meters ( ":11940,"victi":11941,"single \" ":11942,"Gener":11943,"Herald ":11944,"period , ":11945,"horiz":11946," On the ":11947,"des Chevali":11948,"scrib":11949,"aurus ":11950,"tourist ":11951,"suggested that the ":11952,"campu":11953,"months of ":11954,"landings ":11955,"observations ":11956,"sixteen ":11957,"Holocaust ":11958,"Evit":11959,"nomination ":11960,"in an attempt to ":11961,"amounts of ":11962,"picture ":11963,"platinum ":11964,"discussed ":11965,"defined ":11966,"Pacific Ocean ":11967,"archaeologist ":11968,"imagery ":11969,"states that ":11970,"Trek ":11971,". Despite the ":11972,"Romanian ":11973,"administrative ":11974,"circle ":11975,"size of the ":11976,"credits ":11977,"Graves ":11978,"instrument":11979,"rapped in ":11980,"assassin":11981,"monitor":11982,"promote ":11983,"Network ":11984,"Kurt ":11985,"modified ":11986,"Girl ":11987,"rifle ":11988,"NHL ":11989,"correct ":11990,"Athletic ":11991,"false ":11992,"Alfred ":11993,"coaching ":11994,"best @-@ selling ":11995,"suffered a ":11996,"People 's ":11997,"frigates ":11998,"Netherlands ":11999,"Peninsula ":12000,"Recording Industry ":12001,"burgh ":12002,"vulner":12003,"suicide ":12004,"poison":12005,"obvious ":12006,"Organization ":12007,"@-@ tailed jackrab":12008,"Original ":12009,"suddenly ":12010,"Imagine ":12011,"Austro @-@ Hungarian ":12012,".g":12013,"230 ":12014,"22nd ":12015,"4 , and ":12016,"Benjam":12017,"CE ":12018,"Hob":12019,"Heal":12020,"J ":12021,"Key ":12022,"Mach":12023,"MS ":12024,"Pop":12025,"Rap":12026,"Tam":12027,"Z ":12028,"e.g":12029,"fli":12030,"hill":12031,"mud":12032,"otic ":12033,"stim":12034,"tasked ":12035,"ya ":12036,"than":12037,"inson ":12038,"replic":12039,"of any ":12040,"and B":12041,"a T":12042,"on 5 ":12043,"on 4 ":12044,"on 12 ":12045,"in any ":12046,"in Europe ":12047,"to S":12048,"to prevent ":12049,"as she ":12050,"oux ":12051,"\" of the ":12052,"actor":12053,"or of the ":12054,"was more ":12055,"was unable to ":12056,"The F":12057,"of the British ":12058,"bet ":12059,"chamber ":12060,"igning ":12061,"rati":12062,"liqu":12063,"clock ":12064,"set the ":12065,"pretty ":12066,"tico ":12067,"parti":12068,"all @-@ time ":12069,"but also ":12070,"estone ":12071,", the song ":12072,"clubs ":12073,"other than ":12074,"deser":12075,"fire":12076,"otype ":12077,"at the end of ":12078,"forming ":12079,"after <unk> ":12080,"obi":12081,"Institute ":12082,"phen":12083," = = = <unk> and ":12084,"centr":12085,"spectr":12086,"egrap":12087,"ance of the ":12088,"color":12089,"between <unk> and ":12090,"and <unk> the ":12091,"relev":12092,"helium ":12093,"submitted ":12094,"That ":12095,"Through ":12096,"complim":12097,"director":12098,"trials ":12099,"choose ":12100,"success of ":12101,"began a ":12102,"British and ":12103,"originated ":12104,"years ago ":12105,"Collection ":12106,"play , ":12107," By the ":12108,"John 's ":12109,"form the ":12110,"people who ":12111,"dict":12112,"passage ":12113,"delay ":12114,"much more ":12115,". Not ":12116,"mediate ":12117,"belief":12118,"Green":12119,"field goal ":12120,". It was also ":12121,"character , ":12122,"scored a ":12123,"fluor":12124,"issued a ":12125,"sitting ":12126,"Maur":12127,"Actor ":12128,"contradic":12129,"gave a ":12130,"force of ":12131,"there":12132,"Community ":12133,"Season ":12134,"fourteen ":12135,"tain the ":12136,"Christian":12137,"myster":12138,"covered ":12139,"book":12140,"Morrison ":12141,"evident ":12142,"fall Gully ":12143,"honour ":12144,"shorter ":12145,"languag":12146,"conduct ":12147,"peninsul":12148,"entertainment ":12149,"Beet":12150,"occupied ":12151,"Airport , ":12152,"launched ":12153,"2 – 1 ":12154,"semi":12155,"ullen ":12156,"Keith ":12157,"peak intensity ":12158,"conflicts ":12159,"ultimate ":12160,"below the ":12161,"intellig":12162,"M ‑ ":12163,"Portugal ":12164,"Philippine ":12165,"circu":12166,"plans to ":12167,"reflected ":12168,"characteristic ":12169,"teaching ":12170,"window":12171,"hamle":12172,"stay @-@ at @-@ home ":12173,"encounter ":12174,"communication ":12175,"gift ":12176,"wait ":12177,"Transportation ":12178,"scheduled ":12179,"ASP @-@ ":12180,"helped to ":12181,"as part of a ":12182,"toler":12183,"Independence ":12184,"miles per hour ":12185,"junior ":12186,"Hugh ":12187,"pulled ":12188,"benefit ":12189,"possibility of ":12190," With the ":12191,"consolid":12192,"long tons ( ":12193,"aerial ":12194,"Celtic ":12195,"Jurchen ":12196,"Prime Minister ":12197,"Front ":12198,"Leonard ":12199," = = Descrip":12200,"CBS ":12201,"perimeter ":12202,"Rio de Janeiro ":12203,"Ustaše ":12204,"Detroit ":12205,"Nielsen ":12206,"Natural ":12207," Un":12208,"& <unk> ":12209,"6 , and ":12210,"Are ":12211,"Adams ":12212,"Cir":12213,"Dark ":12214,"Development ":12215,"Djok":12216,"Esh":12217,"Grom ":12218,"IA":12219,"Jim":12220,"Kelly ":12221,"Khandob":12222,"Main ":12223,"Our":12224,"Pan":12225,"Peach ":12226,"Shel":12227,"UN":12228,"VI ":12229,"Wood ":12230,"dits ":12231,"fon":12232,"fasc":12233,"gap ":12234,"iently ":12235,"kick ":12236,"mac":12237,"sis ":12238,"tooth ":12239,"uz":12240,"uals ":12241,"s = = = \n":12242,"t for ":12243,"inet ":12244,", it was ":12245,"unlike ":12246,"<unk> : ":12247,"als , and ":12248,"red":12249,"and not ":12250,"enforc":12251,"energ":12252,"on 23 ":12253,"in 2011 ":12254,"in turn ":12255,"ing C":12256,"stration ":12257,"stere":12258,"es = = \n":12259,"es from the ":12260,"elig":12261,"\" F":12262,"\" with ":12263,"itsu":12264,"ise , ":12265,"isot":12266,"ission ":12267,"amaz":12268,"olay ":12269,"of the year ":12270,"riding ":12271,"plum ":12272,"plant":12273,"by <unk> <unk> ":12274,"aggreg":12275,"beating ":12276,"ching ":12277,"conversion ":12278,"in the game ":12279,"1919 ":12280,"raz":12281,"option ":12282,"propor":12283,"it would ":12284,"it would be ":12285,"ers had ":12286,"apore ":12287,"to the south ":12288,"sees ":12289,"trick ":12290,", and his ":12291,"shark ":12292,"Stav":12293,"timber ":12294,"on the same ":12295,"port of ":12296,"ester 's ":12297,"– 4 ":12298,"body , ":12299,"@.@ 6 ":12300,"@.@ 9 ":12301,"this is ":12302,"feeding ":12303,"forms of ":12304,"crest ":12305,"obile ":12306,"obstac":12307," = = = F":12308,"guar":12309,". Olivi":12310,"coloss":12311,"Whit":12312,"him and ":12313,"marry ":12314,"surrender":12315,"in a <unk> ":12316,"istan ":12317,"ologies ":12318,"of <unk> . \n":12319,"Ark":12320,"linked ":12321,"positively ":12322,"invited ":12323,"acceler":12324,"appearing ":12325,"appears to ":12326,"could not be ":12327,"soul ":12328,"million view":12329,"battles ":12330,"ipe ":12331,"1974 ":12332,"1976 ":12333,"took over ":12334,"differenti":12335,"Shad":12336,"Sholay ":12337,"National Park ":12338,"presented ":12339,"corpor":12340,"headed ":12341,"designation ":12342,"comput":12343,"Class ":12344," Two ":12345,"company 's ":12346,"Hart":12347,"transmission ":12348,"Credits ":12349,"reviewers ":12350,"Africa , ":12351,"novels ":12352,"refused ":12353,"back , ":12354,"hypo":12355,"detach":12356,"suggested ":12357,"eastward ":12358,"under the command of ":12359,". Just ":12360,"animated ":12361,"documents ":12362,"homosex":12363,"audio ":12364,"measu":12365,"Valve ":12366,"contributed ":12367,". One of ":12368,"California , ":12369,"investigation ":12370,"response to ":12371,"I 've ":12372,"Star Trek ":12373,"sized ":12374,"deal with ":12375,"Empir":12376,". Since the ":12377,"repeat":12378,"communications ":12379,"Louisi":12380,"symbol ":12381,"Week ":12382,"waiting ":12383,"column":12384,"rebellion ":12385,"Survey ":12386,"loyd ":12387,"throwing ":12388,"ambique ":12389,"passengers ":12390,"balance ":12391,"requires ":12392,"helicopters ":12393,". Among the ":12394,". Additionally , ":12395,"certainly ":12396,"hydrogen ":12397,"scattered ":12398,"Saturday ":12399,". Initially ":12400,"byter":12401,"artistic ":12402,"German and Ottoman ":12403,"colossal ":12404,"240 ":12405,"360 ":12406,"AF":12407,"Adel":12408,"Cop":12409,"Cab":12410,"Cru":12411,"Dud":12412,"Dodg":12413,"Go ":12414,"Han":12415,"Han ":12416,"Jeff":12417,"Jones ":12418,"Ly":12419,"Liv":12420,"Last ":12421,"Nad":12422,"Reb":12423,"Sound ":12424,"Vo":12425,"Veg":12426,"aic ":12427,"ax ":12428,"cm ":12429,"gates ":12430,"goods ":12431,"iew ":12432,"matur":12433,"oto ":12434,"oil":12435,"pin":12436,"pet ":12437,"pine ":12438,"pale ":12439,"pure ":12440,"ra , ":12441,"sings ":12442,"telling ":12443,"uous ":12444,"the only ":12445,"institution ":12446,"insurg":12447,"ana , ":12448,", as well as ":12449,". Com":12450,"arnia ":12451,"resp":12452,"rebuilt ":12453,"of that ":12454,"on 9 ":12455,"on 10 ":12456,"as their ":12457,"rot":12458,"es to the ":12459,"elli ":12460,"is unknown ":12461,"at an ":12462,"at which ":12463,"asking ":12464,"was selected ":12465,"esh":12466,"escop":12467,"olith":12468,"of the film ":12469,"for each ":12470,"agency ":12471,"dium ":12472,"beach":12473,"chann":12474,"conom":12475,"igital ":12476,". The ship ":12477,"legen":12478,"lefield ":12479,"e , as ":12480,"liber":12481,"ce Attorney ":12482,"deity ":12483,"budo ":12484,"20th century , ":12485,"clay ":12486,"span ":12487,"tic <unk> ":12488,"qui":12489,"twin ":12490,"shells ":12491,"uma ":12492,"umps ":12493,"poetic ":12494,"<unk> <unk> <unk> <unk> ":12495,"– 10 ":12496,". In March ":12497,"other hand ":12498,"flesh ":12499,"I am ":12500,"object ":12501,") , and the ":12502,"er , who ":12503,"phic ":12504,"rent ":12505,"man who ":12506,"decom":12507,"upset ":12508,"colog":12509,"ancestr":12510,"and <unk> . \n":12511,"where she ":12512,"a <unk> ( ":12513,"captain":12514,"Part":12515,"New England ":12516,"Ann ":12517,"calling ":12518,"acces":12519,"( <unk> ) and ":12520,"successive ":12521,"tility ":12522,"Scully ":12523,"said that \" ":12524,"1946 ":12525,"1980s , ":12526,". Wil":12527,"ownsend ":12528,"is the first ":12529,"approved ":12530,"genera ":12531,"[ the ":12532,". Cri":12533,"wrote that \" ":12534,"fundam":12535,"allowed the ":12536,"death , ":12537,"war . \n":12538,"1936 ":12539,"skri":12540,"sket":12541,"and a half ":12542,"100 @,@ 000 ":12543,"performed \" ":12544,"claims ":12545,"expect":12546,"Harb":12547,"modern":12548,"featured a ":12549,"proce":12550,"dense ":12551,"attack on ":12552,"partner ":12553,"tour , ":12554,"control of ":12555,"marked the ":12556,"Pry":12557,"ships and ":12558,"estimates ":12559,"West End ":12560,"iddend":12561,"mystery ":12562,"proved to be ":12563,"Finals ":12564,"download ":12565,"effort to ":12566,"composed by ":12567,"negl":12568,"publications ":12569,"King 's ":12570,"Moore ":12571,"Duke of ":12572,"Galli":12573,"School":12574,"drove ":12575,"launched a ":12576,"Giants ":12577,"Joshu":12578,"temperatur":12579,"motor":12580,"bulk ":12581,"Grand Pri":12582,"goals in ":12583,"bowl ":12584,"strategy ":12585,"founder ":12586,"legislation ":12587,"grid ":12588,"Ernest ":12589,"interpret":12590,"quarterback ":12591,"All @-@ Star ":12592,"returning to ":12593,"Hawaiian ":12594,"intersects ":12595,"demands ":12596,"Omah":12597,"bearing ":12598,"doubt ":12599,"Rihann":12600,"disturbance ":12601,"Chapel ":12602,"inscription ":12603,"Album ":12604,"Albums ":12605,"occurred in ":12606,"withdrawal ":12607,"juven":12608,"predecess":12609,"Juan Perón ":12610,"decisions ":12611,"wealthy ":12612,"common starling ":12613,"Phoenix ":12614,"fastest ":12615,"wrote , \" ":12616,"resswell ":12617," = = Legacy = = \n":12618,"anekāntav":12619,"dispute ":12620,"witzerland ":12621," = = Description = = \n":12622,"Aerith ":12623,"Come ":12624,"Dave ":12625,"EC":12626,"Ess":12627,"Fras":12628,"Ida":12629,"Lost ":12630,"Not ":12631,"Plan":12632,"Ray ":12633,"Test ":12634,"bore ":12635,"ition ":12636,"jew":12637,"nations ":12638,"pav":12639,"pack ":12640,"sal ":12641,"tale ":12642,"us , and ":12643,"vital ":12644,"s ; ":12645,"the H":12646,"the two ":12647,"inform":12648,". Y":12649,". You ":12650,"orbit":12651,"aris":12652,"arrest ":12653,"<unk> – ":12654,"<unk> . \" ":12655,"in New York ":12656,"in mid @-@ ":12657,"in Germany ":12658,"es on the ":12659,"urity ":12660,"esinj":12661,"of the original ":12662,"@-@ au":12663,"@-@ style ":12664,"@-@ related ":12665,"@-@ shaped ":12666,"rib":12667,"k des Chevali":12668,"( 18":12669,"constan":12670,". The city ":12671,". The highway ":12672,"in the US ":12673,"prospec":12674,"abroad ":12675,"aph":12676,"ts . The ":12677,"ourth ":12678,"queen ":12679,"ed the \" ":12680,". Tur":12681,"aked ":12682,"time , and ":12683,"4 @,@ 000 ":12684,". In July ":12685,"her to ":12686,"her husband ":12687,"for the next ":12688,"7 and ":12689,"es , such as ":12690,"9 @,@ ":12691,"' <unk> ' ":12692,"Intell":12693,"Maria ":12694,"Markgraf ":12695,"offering ":12696,"knocked ":12697,"updated ":12698,". Bra":12699,"Brist":12700,"three years ":12701,"Alg":12702,"relations ":12703,"sym":12704,"followed the ":12705,"made by ":12706,"re 's ":12707,"rowns ":12708,"oys ":12709,"Northum":12710,"liner ":12711,"aired on ":12712,"tion of a ":12713,"winning the ":12714,"work on ":12715,"succession ":12716,"endor":12717,", but he ":12718,"line and ":12719,"said that he ":12720,"1941 , ":12721,"off @-@ ":12722,"grade ":12723,"battle , ":12724,"long and ":12725,"defenc":12726,"biological ":12727,". Rev":12728,"metric ":12729," One ":12730,"warfare ":12731,"South Vietnamese ":12732,"called it ":12733,"because they ":12734,"Blood ":12735,"Canyon ":12736,"sional ":12737,"course of ":12738,"single @-@ ":12739,"National League ":12740,"pian":12741,"system , ":12742,"runners ":12743,"ed as an ":12744,"Heritage ":12745,"changing ":12746,"designer ":12747,"Performan":12748,"compens":12749,"mainstream ":12750,"historically ":12751,"Interchange ":12752,"Corn":12753,"influences ":12754,"Record":12755,"Barry ":12756,"contains a ":12757,"believed that the ":12758,"due to its ":12759,"church 's ":12760,"Pro ":12761,"works , ":12762,"months , ":12763,"fresh":12764,"latex ":12765,"style of ":12766,"ruling ":12767,"identif":12768,"hours of ":12769,"employe":12770,"publicly ":12771,"reduced to ":12772,"Route 29 ":12773,"depicts ":12774,"NY 93 ":12775,"mbassador ":12776,"synthesis ":12777,"th centuries ":12778,"Agency ":12779,"policies ":12780,"interesting ":12781,"classification ":12782,"zzle ":12783,"Toronto ":12784,"Studio ":12785,"continue to ":12786,"president of the ":12787,"increase in ":12788,"punishment ":12789,"neighbour":12790,"shortly after ":12791,"enjoyed ":12792,"premier":12793,"asteroid ":12794,"toll ":12795,"Chrono ":12796,"science fiction ":12797,"demonstrated ":12798,"distinguished ":12799,"Homer ":12800,"executed ":12801,"illiant ":12802,"resulted in the ":12803,"indigenous ":12804,"inscriptions ":12805,"adventure ":12806,"Nevesinj":12807,"immigration ":12808,"pregnant ":12809,"predecessor ":12810,"chronic":12811,"destroy ":12812,"Dublin ":12813,"Headquarters ":12814,"Clinton ":12815,"Wellington ":12816,"766th ":12817,"Pine Church ":12818,"recurring ":12819,"magnitude ":12820,"exactly ":12821,"oxygen ":12822,"phenom":12823,"@-@ au @-@ ":12824,"constantly ":12825," . \n":12826,"% , ":12827,"Aman":12828,"Cater ":12829,"Day":12830,"Eur":12831,"EFA ":12832,"Iow":12833,"Journey ":12834,"Kati":12835,"Labor":12836,"Lock Haven ":12837,"Mir":12838,"MD ":12839,"Task ":12840,"Xenon ":12841,"Zanz":12842,"atically ":12843,"cos":12844,"coff":12845,"ds , and ":12846,"hope ":12847,"however , the ":12848,"jur":12849,"oir ":12850,"rush ":12851,"tary ":12852,"tant ":12853,"uen":12854,"vis ":12855,"vel ":12856,"zor":12857,"s at ":12858,"infer":12859,"anthem ":12860,", his ":12861,"ed over ":12862,"ore , ":12863,"ornam":12864,"ala ":12865,"endur":12866,"enrol":12867,"on 16 ":12868,"in P":12869,"atever ":12870,"\" S":12871,"is about ":12872,"is a <unk> ":12873,"is one of the ":12874,"ector ":12875,"en to ":12876,"@-@ level ":12877,"for him ":12878,"s , \" ":12879,"s , while ":12880,"forec":12881,"from The ":12882,"ation in the ":12883,"spots ":12884,"set , ":12885," = = T":12886,"quot":12887,"paras":12888,"1 . \n":12889,"Stock":12890,"ations , and ":12891,"poets ":12892,"manip":12893,"Champions ":12894,"2002 , ":12895,"6 @,@ 000 ":12896,". In 196":12897,"other <unk> ":12898,"has two ":12899,"@.@ 1 ":12900,": 3":12901,"i was ":12902,"flank":12903,". <unk> of ":12904,"finest ":12905,"obtain ":12906,". Soon ":12907,") , <unk> ( ":12908,"pric":12909,"pro @-@ ":12910,"charted ":12911,"tenth ":12912,"resemble ":12913,"surprise ":12914,"later in the ":12915,"locks ":12916,"oyage ":12917,". Des":12918,"song , ":12919,"Joint ":12920,"then the ":12921,"incur":12922,"including a ":12923,"became more ":12924,"10 – ":12925,"rising ":12926,"back and ":12927,"continuous ":12928,"continues to ":12929,"owner ":12930,"ownership ":12931,"defences ":12932,". Rich":12933,"Gun ":12934,"what is now ":12935,"advice ":12936,"sequences ":12937,"particul":12938,"half":12939,"brand ":12940,"Form":12941,"field , ":12942,"1953 ":12943,"showing ":12944,"Perfect ":12945,"site , ":12946,"in 2006 ":12947,"take the ":12948,"guns , ":12949,"studied ":12950,"process of ":12951,"density ":12952,"more than a ":12953,"U.S. Route ":12954,"profess":12955,"harmon":12956,"<unk> , <unk> , and <unk> ":12957,"close to the ":12958,"Chagas ":12959,"Evita ":12960,"provided by ":12961,"catch ":12962,"promotional ":12963,"Rifles ":12964,"hit the ":12965,"surrounded by ":12966,"Village ":12967,"San Francisco ":12968,"printing ":12969,"Malley ":12970,"architect ":12971,"Florida Atlantic ":12972,". From the ":12973,"Reser":12974,"performance , ":12975,"influenced ":12976,"accompanying ":12977,"injured ":12978,"Big Ten ":12979,"cancer ":12980,"scientists ":12981,"dissipating ":12982,"Lawrence ":12983,"edge of the ":12984,"footage ":12985,"knowledg":12986,"Langu":12987,"expedi":12988,"molecular ":12989,"negotiations ":12990,"surgery ":12991,"boundaries ":12992,"approval ":12993,"Telug":12994,"Iraq":12995,"ploy ":12996,"Sorra":12997,"seriously ":12998,"references to ":12999,"recognition ":13000,"preferred ":13001,"bringing ":13002,"Sulliv":13003,"Westmin":13004,"swim":13005,"opportunities ":13006,"DOT ":13007,"remarkable ":13008,"Hergé ":13009,"predominantly ":13010,"sensitive ":13011,"Stuart ":13012,"Buddh":13013,"adheera ":13014,"hPa ; ":13015,"miles per hour ( ":13016,"Cater 2 ":13017,"manipul":13018,"AD":13019,"A , ":13020,"Benn":13021,"Bulls ":13022,"CO":13023,"Du F":13024,"Danny ":13025,"Eli":13026,"Fair":13027,"Houston ":13028,"Key":13029,"Raj":13030,"Tony ":13031,"Toky":13032,"UC":13033,"Uta":13034,"With ":13035,"auc":13036,"aft ":13037,"bond ":13038,"cm ) ":13039,"dust ":13040,"fit":13041,"gar ":13042,"golden ":13043,"iding ":13044,"kh":13045,"king":13046,"map":13047,"mole ":13048,"mingham ":13049,"nave ":13050,"p , ":13051,"sand":13052,"tut":13053,"ying the ":13054,"yru":13055,"s had ":13056,"s on the ":13057,"thing to ":13058,"the game ":13059,"iná":13060,"ine of ":13061,"inser":13062,"anil":13063,", it is ":13064,"ors of ":13065,"resign":13066,"reactions ":13067,"of being ":13068,"enorm":13069,"a great ":13070,"on 2 ":13071,"in N":13072,"is in the ":13073,"is more ":13074,"at and ":13075,"at first ":13076,"acute ":13077,"or to ":13078,"ure and ":13079,"ections ":13080,"en the ":13081,"bear ":13082,"( 1 ":13083,"1920 ":13084,"rains ":13085,") ( ":13086,"spaw":13087,"spur ":13088,"ocent ":13089,"seiz":13090,"preserve ":13091,". Australi":13092,"perfec":13093,"had begun ":13094,"quanti":13095,"ds and ":13096,"which had ":13097,"eau ":13098,"sho":13099,"so the ":13100,"aking ":13101,"Chan ":13102,"but not ":13103,"2001 , ":13104,", the storm ":13105,"@.@ 2 ":13106,"militi":13107,"dissol":13108,"2013 , the ":13109,"who had been ":13110,"at the University of ":13111,"alid ":13112,"feature":13113,"pher":13114,"rene ":13115,"most of ":13116,"intercep":13117,"pants ":13118,"time . \n":13119,"decay ":13120,"odro":13121,"ccle":13122,"Alkan 's ":13123,"sight ":13124,"genu":13125,"genetic ":13126,"made to ":13127,"toral ":13128,". Mus":13129,"accus":13130,"dual ":13131,"ect the ":13132,"transm":13133,"miss":13134,"ed that he ":13135,". On September ":13136,"powers ":13137,". Ret":13138,"Ises":13139,"30 @,@ 000 ":13140," Some ":13141,"west of the ":13142,"in <unk> 's ":13143,"brut":13144,"name of the ":13145,"Shell ":13146,"fung":13147,"craf":13148,"reached a ":13149,"held the ":13150,"half of ":13151,"initiated ":13152,"defeated the ":13153,"Club":13154,"top ten ":13155,"canal ":13156,"extend ":13157,"105 ":13158,"present @-@ day ":13159,"crossed ":13160,"racing ":13161,"announcement ":13162,"located in the ":13163,"dependent ":13164,"elections ":13165,"published a ":13166,"tight ":13167,"myself ":13168,"come to ":13169,"rules ":13170,"covering ":13171,"audiences ":13172,"Kingdom of ":13173,"ibility ":13174,"evidence of ":13175,"existed ":13176,"in Bel":13177,"employed ":13178,"Priest ":13179,"navy ":13180,"Camp ":13181,"handed ":13182,"Francis ":13183,"Atlantic Ocean ":13184,"III , ":13185,"oxide ":13186,"Johnny ":13187,"Neil ":13188,"occasional ":13189,"advancing ":13190,"Great Britain ":13191,"flooded ":13192,"themselv":13193,"daughter , ":13194,"maintained ":13195,"Second World War ":13196,"Triple ":13197,"quarter @-@ ":13198,"Congres":13199,"Garden ":13200,"explosive ":13201,"thirty ":13202,"thirty @-@ ":13203,"vote ":13204,"purchased ":13205,"excavation ":13206,"federal government ":13207,"Crusad":13208,"filled with ":13209,"Rhodesia ":13210,"minimal ":13211,"attached to the ":13212,"texts ":13213,"Blu @-@ ":13214,"restricted ":13215,"evolved ":13216,"Championships ":13217,"College of ":13218,"Cambodia ":13219,"argument ":13220,"helicopter ":13221,"Keats 's ":13222,"Railroad ":13223,"commitment ":13224,"veloc":13225,"picked up ":13226,"nel = = \n":13227,"Lincol":13228,"Belgian ":13229,"Chronicles ":13230,"math = = \n":13231,"New South Wales ":13232,"merchant ":13233,"Province ":13234,"Treaty of ":13235,"Clarkson ":13236,". Similarly ":13237,"manga ":13238,"drinking ":13239,"reportedly ":13240,"synagogue ":13241,"Ontario ":13242,". Jordan ":13243,"Caesar ":13244,"steadily ":13245,"centimet":13246,"victim ":13247,"stay @-@ at @-@ home d":13248,"'d ":13249,"125 ":13250,"Bap":13251,"CC ":13252,"Denn":13253,"Gib":13254,"H. ":13255,"Hart ":13256,"Me":13257,"Midge ":13258,"Next ":13259,"Ou":13260,"Off ":13261,"Oscar ":13262,"Sco":13263,"Swed":13264,"gary ":13265,"iami ":13266,"ke , ":13267,"ods of ":13268,"pe ":13269,"push ":13270,"rase ":13271,"tz":13272,"tles ":13273,"tank":13274,"tado ":13275,"vey":13276,"wet":13277,"wrestling ":13278,"ycake ":13279,"₹ ":13280,"t ) ":13281,"intr":13282,", where he ":13283,"reac":13284,"refin":13285,"restrial ":13286,"tier ":13287,"enry ":13288,"on 6 ":13289,"on 7 ":13290,"on each ":13291,"stages ":13292,"atem":13293,"\" is the ":13294,"\" . She ":13295,"ite of ":13296,"ited the ":13297,"at their ":13298,"acycl":13299,"an attempt to ":13300,"ure of ":13301,"was recorded ":13302,"was taken ":13303,"what the ":13304,"that of the ":13305,"haw":13306,"for many ":13307,"for use ":13308,"ago , ":13309,"eval":13310,". The final ":13311,". The system ":13312,"1900 ":13313,"1917 ":13314,"lets ":13315,"earn ":13316,") . <unk> ":13317,"ted into the ":13318,"dez ":13319,"it as a ":13320,"ers who ":13321,"cler":13322,"presum":13323,"our , ":13324,"parliamentary ":13325,"ic and ":13326,"are a ":13327,"fire , ":13328,"poem":13329,"ed by the <unk> ":13330,"<unk> <unk> and <unk> ":13331,"blaz":13332,"allu":13333,"two other ":13334,"otal ":13335,"iller ":13336,"formed a ":13337,"includes the ":13338,". Sub":13339,"phrase ":13340,"ations of the ":13341,"ities to ":13342,"starred ":13343,"writings ":13344,"tions = = \n":13345,"month , ":13346,"king 's ":13347,"helps ":13348,"of <unk> . The ":13349,"Carl ":13350," In addition ":13351,"ist and ":13352,"entially ":13353,"day . \n":13354,"second season ":13355,"can also ":13356,"known to ":13357,"work of ":13358,"forces , ":13359,"he was a ":13360,"returns ":13361,"try to ":13362,"empire ":13363,"May , ":13364,"1975 ":13365,"1979 ":13366," Before ":13367,"took part ":13368,"has been a ":13369,"large , ":13370,"16th century ":13371,". Prior ":13372," Most ":13373,"Counc":13374,"much of ":13375,"Play ":13376,"attempted ":13377,"Foreign ":13378,"distant ":13379,"runway ":13380,"1955 ":13381,"without a ":13382,"Clevel":13383,"voted ":13384,"Internet ":13385,"you 're ":13386,"become the ":13387,"Harrison ":13388,"joining ":13389,"Mission ":13390,"ending the ":13391,"refers to ":13392,"how to ":13393,"Real ":13394,"consistently ":13395,"rocks ":13396,"2nd Battalion , ":13397,"star 's ":13398,"130th ":13399,"comparison ":13400,"grant ":13401,"ibis ":13402,"look":13403,"minister ":13404,"doubl":13405,"civil":13406,"piece of ":13407,"downstream ":13408,"\" , and \" ":13409,"around the world ":13410,"Prize ":13411,"soon after ":13412,"promoted to ":13413,"touch ":13414,"school , ":13415,"Bible ":13416,"wide , ":13417,"contribution ":13418,"Trust ":13419,"Revol":13420,"Egypti":13421,"ometric ":13422,"banded ":13423,"Auth":13424,"anti @-@ aircraft ":13425,"memories ":13426,"double @-@ ":13427,"intellect":13428,"Business ":13429,"bombing ":13430,"appeal":13431,"watching ":13432,"repeated ":13433,"restoration ":13434,"Lawton ":13435,"@-@ pounder ":13436,"there was no ":13437,"Blue Jack":13438,"reference to ":13439,"Pitman ":13440,"Haiti ":13441,"Allen ":13442,"Clark ":13443,"cavalry ":13444,"Argentine ":13445,"advertising ":13446,"long @-@ term ":13447,"doing so ":13448,"Undertak":13449,"deliver ":13450,"Entertainment Weekly ":13451,"realistic ":13452,"researchers ":13453,"Railway ":13454,"hostile ":13455,"accompanied by ":13456,"ystal ":13457,"overwhelm":13458,"Mulder ":13459,"Richardson ":13460,"machinery ":13461,"Administration ":13462,"Keamy ":13463,"decides to ":13464,"mbar ( hPa ; ":13465,"adequate ":13466,"Tennessee ":13467,"Impact ":13468,"Kannada ":13469,"wight ":13470,"familiar ":13471,"FRELIMO ":13472,"repeatedly ":13473,"Pryce ":13474,"Performance ":13475," Like ":13476,"25th ":13477,"350 ":13478,"51 @.@ ":13479,"Am ":13480,"A <unk> ":13481,"Bos":13482,"Bab":13483,"Bren":13484,"Dance ":13485,"Eug":13486,"Fer":13487,"Hur":13488,"Jen":13489,"MV":13490,"Mack":13491,"Name ":13492,"cat ":13493,"cov":13494,"eties ":13495,"ji":13496,"lover ":13497,"mere ":13498,"ny":13499,"neph":13500,"sack":13501,"tan ":13502,"unlikely ":13503,"<unk> K":13504,"alyp":13505,"reper":13506,"a F":13507,"on that ":13508,"on 26 ":13509,"in ' ":13510,"rob":13511,"rotation ":13512,"atop ":13513,"eled ":13514,"itely ":13515,"is of ":13516,"he 's ":13517,"acous":13518,"an early ":13519,"irates ":13520,"of the S":13521,"sibl":13522,"wheel":13523,"plain":13524,"uses the ":13525,"with one ":13526,"consci":13527,"confusion ":13528,"conjunction ":13529,"in the state ":13530,"sun ":13531,"sudden ":13532,"his wife ":13533,") . In ":13534,"<unk> , <unk> ) ":13535,"ers from ":13536,"ety , ":13537,"clou":13538,"ocking ":13539,"had \" ":13540,"ffling":13541,"which they ":13542,"shut ":13543,". Today ":13544,"timately ":13545,"3 to ":13546,"3 @-@ ":13547,"; his ":13548,"2000 , ":13549,"ogan ":13550,"bot ":13551,". In September ":13552,"her first ":13553,"<unk> and <unk> <unk> ":13554,"have not ":13555,"has no ":13556,"versions of ":13557,"iden":13558,"overeign ":13559,"es , \" ":13560,"up with ":13561,"alize ":13562,"flaw":13563,". He later ":13564,"obsc":13565,") , who ":13566," = = = C":13567,"guit":13568,"rench":13569,"ege of ":13570,"interrup":13571,"a , a ":13572,"ricket ":13573,"to be \" ":13574,"produced a ":13575,"Parachute ":13576,"facts ":13577,"accumul":13578,"appeared on ":13579,"solit":13580,"was the second ":13581,"Coleman ":13582,"casem":13583,"case of ":13584,"team , ":13585,"remains of ":13586,"biography ":13587,"legend ":13588,"powder ":13589,"power , ":13590,"graz":13591,"need ":13592,"making a ":13593,"ylogen":13594,"ended the ":13595,"life . \n":13596,"corp":13597,"caused by the ":13598,"funeral ":13599,"1956 ":13600,"headquarter":13601,"types ":13602,"readers ":13603,"members , ":13604,"came from ":13605,"ism , ":13606,"similar":13607,"After":13608,"guns and ":13609,"volcan":13610,"clean":13611,"believed to be ":13612,"due to his ":13613,"Regim":13614,". James ":13615,"roller ":13616,"thought that ":13617,"2 @.@ 0 ":13618,"published in the ":13619,"World War I":13620,"crash":13621,"fifty ":13622,"Street , ":13623,
[...]
